<unk>	0
<s>	0
</s>	0
▁	-3.15004
.	-3.48177
..	-4.31575
이	-4.41758
▁영화	-4.49171
...	-4.55013
가	-4.70085
의	-4.7177
도	-4.78806
는	-4.83021
,	-5.00185
을	-5.04211
에	-5.08198
고	-5.12568
다	-5.16039
은	-5.20141
지	-5.27826
?	-5.33966
한	-5.42128
▁너무	-5.48886
!	-5.50829
를	-5.57292
만	-5.6009
▁정말	-5.60986
▁이	-5.70204
로	-5.72815
게	-5.74033
나	-5.81425
▁진짜	-5.81617
영화	-5.81946
~	-5.83212
과	-5.99608
어	-6.00288
기	-6.02703
라	-6.07935
리	-6.12322
점	-6.12365
아	-6.12707
네	-6.13647
인	-6.16293
하고	-6.19311
으로	-6.24295
▁안	-6.25545
▁잘	-6.2815
서	-6.29834
....	-6.30556
!!	-6.30716
에서	-6.32793
▁왜	-6.32981
▁1	-6.33159
와	-6.34732
▁그	-6.36843
들	-6.3708
요	-6.37996
▁이런	-6.39021
▁더	-6.40078
해	-6.41632
▁아	-6.42254
스	-6.44969
▁다	-6.45245
▁수	-6.45995
네요	-6.47234
자	-6.50989
거	-6.51773
하는	-6.53644
▁그냥	-6.54706
음	-6.55835
▁본	-6.55913
▁드라마	-6.59905
▁10	-6.60976
면	-6.61174
지만	-6.62168
수	-6.65348
하	-6.66478
니	-6.66652
대	-6.66884
▁보고	-6.69237
함	-6.70495
시	-6.71276
▁연기	-6.71519
▁평점	-6.71538
▁내	-6.71658
야	-6.74213
진	-6.79492
하다	-6.798
하게	-6.81204
사	-6.81843
일	-6.82072
▁좀	-6.82526
이다	-6.82999
▁영화를	-6.85771
▁한	-6.86186
▁봤는데	-6.87144
▁최고의	-6.87645
▁이거	-6.87967
▁ᄏᄏ	-6.88015
주	-6.88585
▁참	-6.88876
여	-6.89015
보	-6.89043
▁최고	-6.89264
우	-6.90381
▁쓰레기	-6.91155
미	-6.91252
데	-6.91336
는데	-6.91797
구	-6.92205
!!!	-6.92418
▁없는	-6.93507
▁없다	-6.93776
▁못	-6.94602
보다	-6.94901
드	-6.95293
안	-6.95383
▁완전	-6.95645
▁스토리	-6.96419
임	-6.97315
ᄏᄏ	-6.98191
▁내가	-6.98471
할	-6.99952
▁영화는	-7.0141
▁영화가	-7.01464
▁이건	-7.01685
▁2	-7.01868
성	-7.02865
냐	-7.03318
까지	-7.03349
정	-7.0372
듯	-7.04673
▁개	-7.05124
▁좋은	-7.05579
^^	-7.05864
▁있는	-7.06186
들이	-7.06443
던	-7.06754
신	-7.08013
해서	-7.08194
▁이게	-7.08389
▁보는	-7.10176
▁이렇게	-7.10195
장	-7.11037
상	-7.11207
▁다시	-7.1227
▁나	-7.12584
중	-7.12958
적	-7.13922
▁3	-7.14307
▁난	-7.14883
트	-7.15095
보고	-7.15994
ᄏ	-7.16377
▁것	-7.16708
~~	-7.1739
▁평점이	-7.17514
▁재밌게	-7.17966
치	-7.19509
러	-7.19568
▁말	-7.20635
부	-7.21099
마	-7.21386
전	-7.22054
1	-7.2231
오	-7.22937
▁뭐	-7.23556
랑	-7.23799
▁역시	-7.24311
건	-7.25216
려	-7.25887
분	-7.26054
▁많이	-7.28532
▁넘	-7.28676
화	-7.28962
세	-7.29524
▁오	-7.29827
그	-7.30039
개	-7.30126
▁작품	-7.30583
습니다	-7.30746
비	-7.30894
물	-7.31396
년	-7.31914
내	-7.32007
원	-7.32123
▁지	-7.33107
;;	-7.3314
▁전	-7.33676
▁보	-7.3393
히	-7.35411
▁볼	-7.35827
▁감동	-7.35839
질	-7.36112
??	-7.37059
▁마지막	-7.38462
소	-7.39136
인데	-7.39271
▁저	-7.39469
2	-7.39613
▁재미	-7.40214
▁아깝다	-7.41072
용	-7.4151
식	-7.41717
▁꼭	-7.4179
▁또	-7.41974
했다	-7.42109
적인	-7.42234
▁무	-7.42435
▁별로	-7.42754
때	-7.4281
▁별	-7.43137
라고	-7.4373
▁ᄏᄏᄏ	-7.44082
진짜	-7.44416
감	-7.4456
급	-7.44718
▁주	-7.45682
▁하	-7.4591
▁액션	-7.47619
▁가장	-7.47773
하지	-7.47828
같은	-7.4799
것	-7.48367
▁생각	-7.48498
▁하나	-7.48717
더	-7.49432
▁감독	-7.49545
입니다	-7.50045
▁시간	-7.50325
'	-7.51072
말	-7.51454
ᄏᄏᄏ	-7.51515
▁그리고	-7.52219
무	-7.52368
ᅲᅲ	-7.52536
▁이야기	-7.53201
제	-7.53382
선	-7.53417
▁기대	-7.5347
줄	-7.53597
▁명작	-7.53999
어요	-7.54496
▁없고	-7.54545
▁하는	-7.5457
▁김	-7.54828
▁지금	-7.55193
디	-7.55707
본	-7.56272
영	-7.56333
걸	-7.56926
편	-7.57414
동	-7.58004
너무	-7.58018
▁정	-7.58099
▁보면	-7.59005
란	-7.59217
▁비	-7.59294
좀	-7.59645
드라마	-7.59824
▁사	-7.59896
작	-7.59979
▁무슨	-7.60306
군	-7.60908
호	-7.61459
으면	-7.61597
;	-7.61997
씨	-7.62259
이나	-7.62504
▁한국	-7.62968
긴	-7.63006
▁다른	-7.63377
르	-7.63515
▁아니	-7.63651
▁조	-7.64056
▁배우	-7.64243
없는	-7.64603
▁사랑	-7.64819
▁만든	-7.65099
조	-7.65283
▁ᅲᅲ	-7.654
▁중	-7.65404
▁처음	-7.65572
▁할	-7.65985
▁느낌	-7.66302
▁ᄏ	-7.66366
ᅲ	-7.66828
남	-7.67006
된	-7.67511
▁돈	-7.68163
)	-7.68373
있는	-7.68471
정말	-7.68802
유	-7.6915
부터	-7.69203
▁말이	-7.69304
라는	-7.69545
▁기	-7.71
▁ᅳᅳ	-7.71515
▁미	-7.724
당	-7.73092
▁일본	-7.73297
연	-7.73598
울	-7.73606
▁마	-7.73671
▁유	-7.73779
▁내용	-7.7404
▁연출	-7.7429
모	-7.7433
▁두	-7.74523
▁영화다	-7.74758
간	-7.74789
에게	-7.75398
▁짱	-7.75727
래	-7.75729
3	-7.75738
명	-7.7605
▁와	-7.76076
심	-7.76215
크	-7.76356
▁끝까지	-7.76533
▁어	-7.76763
두	-7.7715
▁대	-7.77193
난	-7.77723
한다	-7.77734
레	-7.78225
타	-7.78463
▁자	-7.79072
준	-7.79266
▁좋아	-7.79268
바	-7.79297
▁신	-7.79336
▁일	-7.79419
▁좋다	-7.79661
들의	-7.80503
운	-7.80679
위	-7.80722
▁있다	-7.80933
▁봐도	-7.81563
ᅳᅳ	-7.81842
린	-7.81988
▁솔직히	-7.82135
▁같은	-7.83192
류	-7.83634
▁ᄒᄒ	-7.8391
▁봤다	-7.84149
▁뭔가	-7.84298
노	-7.84707
인가	-7.84802
판	-7.8503
희	-7.85261
,,	-7.8528
▁인생	-7.85383
죠	-7.85493
합니다	-7.86023
▁재미있게	-7.86026
프	-7.86096
되는	-7.86143
▁남	-7.86516
▁거	-7.8656
▁알	-7.86626
워	-7.86675
▁재밌다	-7.87102
▁제	-7.87326
단	-7.87458
발	-7.87569
살	-7.87604
연기	-7.87611
▁여자	-7.88019
길	-7.88121
▁아주	-7.88167
잘	-7.88255
경	-7.88578
▁때	-7.88666
▁전혀	-7.88781
재	-7.89046
처럼	-7.89484
▁이걸	-7.89829
▁같다	-7.89998
인지	-7.90153
▁'	-7.90166
▁코미디	-7.90198
▁시	-7.9034
까	-7.90485
▁이영화	-7.90518
하나	-7.90748
했던	-7.90978
었다	-7.91001
하지만	-7.91321
▁한번	-7.92316
저	-7.9321
▁최악의	-7.93339
▁최악	-7.93422
루	-7.93499
엔	-7.93537
▁해	-7.93583
생	-7.93583
▁하지만	-7.93774
▁대한	-7.93776
민	-7.93788
때문에	-7.95069
▁구	-7.95116
방	-7.95322
▁장	-7.95797
봤는데	-7.95833
이랑	-7.96025
하면	-7.96406
번	-7.9647
▁애	-7.9655
▁줄	-7.96954
▁모두	-7.97113
못	-7.97123
▁부	-7.97183
▁바	-7.97261
▁대박	-7.9738
으	-7.97498
면서	-7.97713
▁내용이	-7.97788
(	-7.98397
▁사람	-7.99263
▁계속	-7.99384
님	-7.99614
▁이상	-7.99739
!!!!	-7.99958
▁재미없다	-8.00315
▁아니라	-8.00327
시간	-8.00389
며	-8.0039
국	-8.00503
▁많은	-8.00773
든	-8.00864
▁실망	-8.0093
-	-8.00982
티	-8.01153
박	-8.01201
피	-8.01519
하네	-8.0154
▁나오는	-8.01586
▁후	-8.017
ᄒᄒ	-8.01709
날	-8.01834
차	-8.0211
10	-8.02113
지는	-8.02115
o	-8.02155
▁어떻게	-8.02214
▁않고	-8.02354
▁그래도	-8.02718
▁내내	-8.02757
▁반	-8.02787
파	-8.02967
없다	-8.03147
림	-8.03209
▁보기	-8.03455
키	-8.03941
들은	-8.04004
▁배우들	-8.04183
반	-8.04291
▁4	-8.04602
▁소	-8.04702
▁우	-8.04742
▁7	-8.04966
카	-8.05136
▁스	-8.05182
버	-8.05615
▁아닌	-8.05643
▁공포	-8.06226
없이	-8.06413
▁연기가	-8.06544
▁우리	-8.06581
관	-8.06754
▁모	-8.07175
▁장면	-8.07189
▁딱	-8.07436
▁아름다운	-8.07796
▁5	-8.07854
애	-8.08081
점도	-8.08438
이라	-8.0911
▁9	-8.09127
▁제일	-8.09162
▁아니다	-8.09211
형	-8.09216
▁만드는	-8.09317
겠다	-8.09699
달	-8.09847
▁추천	-8.09919
겨	-8.10006
구나	-8.10048
점이	-8.10171
~~~	-8.10253
따	-8.10382
▁끝	-8.10674
즈	-8.10925
▁스릴러	-8.11348
▁박	-8.11444
▁전개	-8.11458
다니	-8.11675
▁조금	-8.1228
▁이제	-8.12347
현	-8.12431
하네요	-8.12606
4	-8.12695
▁않은	-8.12724
▁반전	-8.128
▁굿	-8.13033
▁싶다	-8.13042
▁듯	-8.13059
▁강	-8.13134
▁않는	-8.13255
▁그런	-8.13381
▁내용도	-8.13402
보면	-8.1346
터	-8.13915
▁개봉	-8.1395
▁남는	-8.14168
▁되	-8.14413
▁모든	-8.14701
▁요즘	-8.14742
ᄒ	-8.14819
▁보다가	-8.15069
▁연기도	-8.15151
니까	-8.15381
▁근데	-8.15716
▁만들어	-8.15963
스토리	-8.16153
ᅳ	-8.16301
되	-8.16329
보는	-8.16371
▁8	-8.16427
▁주인공	-8.16625
체	-8.16949
어서	-8.17015
년대	-8.17202
생각	-8.17526
▁재미도	-8.17658
▁음악	-8.17711
망	-8.17745
▁아까운	-8.17756
e	-8.17869
적으로	-8.17907
▁남자	-8.17967
5	-8.18232
▁눈	-8.1826
▁여운이	-8.18496
▁절대	-8.18841
공	-8.1898
▁속	-8.19413
지도	-8.19432
▁피	-8.19673
▁건	-8.19836
▁보다	-8.19873
▁아직도	-8.20162
▁감독이	-8.20199
▁수준	-8.20255
♥	-8.20293
▁나는	-8.20499
▁애니	-8.20716
▁이해	-8.2083
후	-8.20891
t	-8.20919
▁시간이	-8.21009
다가	-8.21196
▁욕	-8.21291
▁0	-8.21466
▁스토리가	-8.21608
않	-8.21976
▁연기력	-8.22076
이라는	-8.22108
▁배	-8.22207
볼	-8.22276
배	-8.22517
산	-8.22854
▁기억	-8.2335
▁영화라고	-8.23356
코	-8.23392
▁막장	-8.2345
없	-8.23479
▁오랜만에	-8.23761
s	-8.24065
져	-8.24226
하기	-8.24348
▁OO	-8.24459
이란	-8.24556
▁뻔한	-8.24808
▁때문에	-8.25016
한테	-8.25351
▁ᄏᄏᄏᄏ	-8.25804
▁제대로	-8.26241
▁영화입니다	-8.26303
ᄏᄏᄏᄏ	-8.26346
왜	-8.2635
참	-8.26429
▁불	-8.2648
속	-8.26608
▁엄청	-8.26678
죽	-8.26769
▁날	-8.26809
예	-8.27018
짱	-8.2708
▁하고	-8.27316
석	-8.27325
ᅮᅮ	-8.2751
정도	-8.2753
것도	-8.27674
극	-8.27874
뿐	-8.28156
▁가족	-8.28482
문	-8.28683
려고	-8.2869
금	-8.28748
???	-8.28928
▁나온	-8.29053
▁울	-8.29525
▁노	-8.29541
▁차라리	-8.29563
▁좋고	-8.29619
태	-8.29669
;;;	-8.29892
▁멋진	-8.30261
넘	-8.30499
해요	-8.30509
▁봤습니다	-8.30688
▁재	-8.30768
▁지루하고	-8.3088
▁재밌어요	-8.30973
▁나름	-8.31028
▁주는	-8.31099
▁미국	-8.31109
▁도대체	-8.31227
밖에	-8.31227
라도	-8.31306
i	-8.31478
▁나오	-8.31594
꺼	-8.31759
▁결말	-8.31769
배우	-8.31893
▁걸	-8.31935
▁스토리도	-8.31947
▁좋았다	-8.31956
였다	-8.31973
▁성	-8.31989
던데	-8.32006
토	-8.32087
▁공감	-8.32221
▁진심	-8.3225
매	-8.32305
7	-8.32312
▁눈물	-8.32352
▁웃	-8.32377
▁만들	-8.32408
▁파	-8.32613
▁걍	-8.3296
▁공포영화	-8.33234
격	-8.33292
평점	-8.33435
쳐	-8.3344
인듯	-8.3345
▁나도	-8.33467
최고	-8.33485
는거	-8.33521
▁아니고	-8.33571
▁없	-8.33657
▁재밌는	-8.33857
▁캐릭터	-8.33943
▁연	-8.33974
▁예	-8.34032
▁봤던	-8.34108
▁지루한	-8.34298
▁시리즈	-8.34345
니다	-8.34364
점은	-8.34877
▁영	-8.35059
회	-8.35124
▁보면서	-8.35463
했는데	-8.35582
▁감독의	-8.35601
8	-8.3562
▁정도	-8.35718
▁수작	-8.35911
▁재밌	-8.35949
행	-8.35991
▁B	-8.36024
능	-8.3605
▁여	-8.36078
▁공	-8.36097
▁되는	-8.36503
▁ᅲ	-8.36635
▁20	-8.36722
락	-8.36792
▁세	-8.37138
▁심	-8.37153
▁우리나라	-8.37209
▁영화의	-8.37226
/	-8.37255
녀	-8.37291
사람	-8.37352
는게	-8.37535
▁싶은	-8.37625
▁좋아하는	-8.3778
릴	-8.37823
▁원	-8.37888
▁쓰	-8.38034
이고	-8.38049
잼	-8.38096
▁몇	-8.38111
▁기분	-8.38187
▁대사	-8.38343
▁보세요	-8.38428
▁동	-8.38511
실	-8.38543
▁최고다	-8.38591
▁영상	-8.38606
중에	-8.3866
▁발	-8.39128
았다	-8.39269
▁재미가	-8.39433
▁지루함	-8.3968
▁^^	-8.39728
봤다	-8.39839
▁긴장감	-8.39906
▁소재	-8.39951
▁마지막에	-8.40178
▁원작	-8.40185
▁없음	-8.40191
종	-8.40312
▁가슴	-8.40441
건지	-8.40552
그냥	-8.41047
▁시작	-8.41098
스트	-8.41265
투	-8.41478
었는데	-8.41642
▁보게	-8.41646
▁표현	-8.41658
6	-8.41993
▁머	-8.4207
▁시나리오	-8.42092
d	-8.4215
등	-8.42204
감동	-8.42334
▁기억에	-8.42529
▁졸	-8.42562
▁괜찮은	-8.42683
들을	-8.42965
집	-8.43045
더라	-8.43104
▁OOO	-8.43203
▁특히	-8.43469
리는	-8.43723
▁뭘	-8.43738
~!	-8.43757
▁초	-8.43966
▁현실	-8.44048
▁알바	-8.44097
▁사람들	-8.44403
역	-8.44415
▁이해가	-8.44426
해도	-8.44477
▁제목	-8.44758
▁애니메이션	-8.44786
브	-8.44804
테	-8.44816
▁뭔	-8.44922
▁후회	-8.44943
▁막	-8.45047
설	-8.45129
포	-8.45196
▁않	-8.45324
▁배우들의	-8.45644
▁졸작	-8.45687
,,,	-8.45803
절	-8.45983
장면	-8.46068
▁영화에	-8.46088
감독	-8.46146
▁보는내내	-8.4638
짐	-8.46693
케	-8.46839
구만	-8.46853
▁사실	-8.46872
▁진	-8.4697
이라고	-8.47187
▁함께	-8.47308
력	-8.47398
봄	-8.47461
▁될	-8.47757
움	-8.47765
▁있	-8.47811
있다	-8.47854
이런	-8.4808
▁지루하다	-8.48495
▁6	-8.48597
는지	-8.48665
▁허	-8.48668
만큼	-8.48711
불	-8.48737
▁행복	-8.48747
탄	-8.48751
▁봤어요	-8.4914
사랑	-8.49223
악	-8.49248
▁맞	-8.49281
업	-8.49495
▁재밋	-8.49932
머	-8.49948
강	-8.50013
▁그저	-8.50254
""	-8.50697
▁개인적으로	-8.50745
▁강추	-8.50963
▁만화	-8.5106
▁오늘	-8.51108
▁필요	-8.51201
학	-8.51335
▁못한	-8.51796
▁캐스팅	-8.51856
▁차	-8.52009
글	-8.52034
▁코믹	-8.5204
▁노래	-8.52116
통	-8.5226
먹	-8.52285
돈	-8.52294
▁몰입도	-8.52312
름	-8.52471
▁어떤	-8.52828
너	-8.52908
▁매	-8.53146
봐도	-8.53268
양	-8.53426
근	-8.53634
이네	-8.5405
좋	-8.54056
▁극장에서	-8.54097
작품	-8.54111
▁된	-8.54407
▁큰	-8.54451
담	-8.5447
주는	-8.5462
쓰레기	-8.54639
ᅮ	-8.54677
론	-8.54781
있	-8.54848
재밌	-8.55043
했	-8.55198
▁없이	-8.55414
▁결국	-8.55935
▁한국영화	-8.56006
▁영화로	-8.56012
천	-8.56017
▁안되는	-8.56048
김	-8.56225
알	-8.56351
▁생각이	-8.5648
▁제발	-8.5651
▁잠	-8.56808
▁매우	-8.5688
▁봐야	-8.56925
계	-8.5699
▁들	-8.5716
▁더빙	-8.57411
▁담	-8.57583
▁웃기	-8.57893
새	-8.5792
입	-8.58018
▁인간	-8.58036
을까	-8.58116
하면서	-8.58251
했음	-8.58446
▁망	-8.58646
이야	-8.58784
액션	-8.58792
창	-8.588
대로	-8.58841
▁감	-8.58905
재미	-8.58971
▁모르겠다	-8.59056
a	-8.59348
보단	-8.59445
갈	-8.59465
▁최	-8.59556
▁베	-8.59716
▁마음	-8.59803
봐	-8.59923
아니	-8.60108
▁좋아요	-8.60432
승	-8.60494
교	-8.60633
른	-8.60703
▁억지	-8.60754
맨	-8.60814
▁마음이	-8.60858
▁죽	-8.60964
▁토	-8.61504
난다	-8.61742
▁사람이	-8.62404
점대	-8.62545
▁존나	-8.62558
▁아무리	-8.62727
기도	-8.62854
병	-8.62868
버린	-8.63299
이네요	-8.63329
▁연기는	-8.63468
잡	-8.63479
군요	-8.63488
▁너무나	-8.63494
▁분위기	-8.63516
씬	-8.63517
▁예술	-8.6362
▁아이	-8.63624
▁살	-8.63715
초	-8.63736
▁감동이	-8.6376
▁별점	-8.63778
된다	-8.63826
레이	-8.6392
▁않는다	-8.64007
훈	-8.64283
점을	-8.64351
▁재밌고	-8.64533
▁문제	-8.64686
뭐	-8.64791
▁타	-8.64926
슨	-8.64993
영화는	-8.65177
슬	-8.65265
이상	-8.65347
▁보지	-8.65353
할수	-8.65432
▁위한	-8.65434
▁길	-8.65502
▁따라	-8.65548
▁단	-8.6564
▁얼마나	-8.6569
▁재밌음	-8.65732
왔	-8.65885
이지만	-8.65896
인줄	-8.65943
l	-8.66079
▁ᅮᅮ	-8.66145
짓	-8.6619
색	-8.66224
▁물	-8.66276
▁기억이	-8.66412
▁영화네요	-8.66435
▁상	-8.66518
증	-8.66581
▁미친	-8.66598
▁존	-8.66805
+	-8.66844
▁내용은	-8.66975
▁가슴이	-8.67026
▁로맨스	-8.67184
돌	-8.67275
하며	-8.67342
끼	-8.67349
▁선	-8.67579
▁명	-8.67709
u	-8.67749
▁평	-8.67785
환	-8.67803
▁호	-8.67829
▁있고	-8.67832
▁같이	-8.67843
직	-8.6789
▁그만	-8.68325
▁한다	-8.68439
▁위	-8.68557
권	-8.68724
▁높	-8.68742
▁준	-8.68804
g	-8.68839
빠	-8.68852
별	-8.68912
▁설정	-8.69019
▁중국	-8.69096
▁누가	-8.6913
▁노잼	-8.69276
왕	-8.69359
▁걸작	-8.69462
었	-8.69581
▁손	-8.69599
칠	-8.69645
평	-8.69708
▁ᄒ	-8.69735
▁있을	-8.69802
출	-8.6984
기는	-8.6989
▁너	-8.70022
▁하나도	-8.70056
▁눈물이	-8.70366
▁결말이	-8.70369
친	-8.70603
▁싶	-8.70603
베	-8.70834
느낌	-8.70963
완전	-8.7109
▁엔딩	-8.71149
▁백	-8.71207
▁치	-8.71314
었던	-8.71356
▁"	-8.71667
h	-8.71688
▁그나마	-8.71703
▁약	-8.71709
▁영화중	-8.71936
련	-8.71944
▁같	-8.72026
▁않다	-8.72126
▁없어	-8.72305
▁매력	-8.72415
기에	-8.72421
이었다	-8.72424
▁아무	-8.72442
▁갈수록	-8.72471
열	-8.72515
잇	-8.72544
▁쓰레기영화	-8.72669
▁유치	-8.72706
▁어설픈	-8.72746
나는	-8.72792
▁것이	-8.72994
▁있었	-8.73104
▁대체	-8.73145
▁정신	-8.73171
▁엄마	-8.73225
소리	-8.73409
록	-8.73447
▁간만에	-8.73477
0	-8.73483
▁출연	-8.73486
▁웃음	-8.73613
수가	-8.73741
▁애들	-8.73921
▁꽤	-8.74016
건가	-8.7402
▁훨씬	-8.7405
▁허접	-8.74055
▁발연기	-8.74135
▁감동도	-8.74315
▁따	-8.7434
▁그렇게	-8.74353
짜	-8.74424
이지	-8.74481
▁영화관에서	-8.74509
였음	-8.74513
블	-8.7457
▁감동적인	-8.74661
▁-	-8.7467
였	-8.74799
이거	-8.74819
▁똥	-8.74878
내용	-8.74981
▁아쉽다	-8.75027
▁인	-8.75031
범	-8.75257
▁재미없음	-8.75269
▁잔잔한	-8.75306
또	-8.75398
>	-8.75462
▁잼있	-8.75705
▁적	-8.75762
온	-8.75806
거야	-8.76264
▁재미있다	-8.76363
▁알고	-8.76511
▁재미있는	-8.76707
다고	-8.76748
땜에	-8.76956
향	-8.77028
▁잼	-8.77029
▁실	-8.77082
▁없었다	-8.77094
9	-8.77149
▁주연	-8.77306
뻔	-8.77372
보니	-8.77546
졌	-8.7759
▁멋있	-8.77951
▁밖에	-8.78062
아서	-8.78067
▁총	-8.78069
▁경	-8.78235
▁위해	-8.78261
▁간	-8.7838
▁볼만한	-8.78422
진다	-8.78608
결	-8.78631
▁먹	-8.78699
막	-8.78742
수준	-8.79041
었음	-8.79077
▁성룡	-8.79086
거지	-8.79105
▁전쟁	-8.79224
▁시즌	-8.79523
년이	-8.79534
플	-8.79569
▁의미	-8.79664
께	-8.7985
었어요	-8.80007
▁지루	-8.80184
치는	-8.80371
더니	-8.80447
▁잡	-8.8049
됨	-8.80494
▁첨	-8.80548
언	-8.80605
이건	-8.80665
▁그래서	-8.80922
표	-8.80944
▁다큐	-8.80949
어야	-8.81044
▁이딴	-8.81068
▁재미없	-8.81108
▁구성	-8.81155
좋아	-8.81198
해라	-8.81585
라서	-8.81662
▁꿈	-8.82
존	-8.82191
하는데	-8.82283
나요	-8.82361
에도	-8.82515
▁많	-8.82556
욕	-8.82562
▁집중	-8.82648
▁좋은데	-8.82809
▁진정한	-8.8287
해야	-8.82899
백	-8.82951
싶	-8.83202
▁생각보다	-8.83478
▁외	-8.83601
▁재미는	-8.83605
▁맘에	-8.83669
▁추	-8.83828
▁극	-8.83895
합	-8.83974
▁느낌이	-8.84048
▁보여주는	-8.84161
치고	-8.84249
할때	-8.84375
▁안되	-8.84588
▁천	-8.84641
기를	-8.84715
맞	-8.84948
▁점수	-8.85008
▁비교	-8.85099
될	-8.85201
▁당시	-8.85349
▁화	-8.85743
▁코	-8.85751
만들	-8.86129
k	-8.86208
쓰	-8.86209
기대	-8.86296
▁30	-8.8633
나오는	-8.86436
라면	-8.86478
▁올	-8.8651
▁CG	-8.86511
▁네이버	-8.8665
했지만	-8.8684
▁오래	-8.86946
▁연기를	-8.87024
순	-8.87112
▁약간	-8.87177
▁재미없는	-8.87194
영화를	-8.8722
▁포	-8.87254
▁재밌네요	-8.87276
▁어느	-8.87324
▁들어	-8.87381
r	-8.87471
▁주고	-8.87506
▁전부	-8.876
재미있	-8.87638
▁열	-8.87752
▁메	-8.87854
▁다들	-8.87876
스러운	-8.87953
여자	-8.88123
▁입	-8.88141
▁야	-8.88264
▁뿐	-8.8828
각	-8.88284
ᄋ	-8.88643
퍼	-8.88673
▁좋	-8.88691
▁음	-8.88729
처	-8.88797
습	-8.8881
▁아님	-8.88952
낮	-8.89002
▁ᅳ	-8.89259
▁같아요	-8.89291
느	-8.89322
놓고	-8.89419
▁""	-8.89431
n	-8.895
▁작가	-8.89587
▁자체	-8.89665
p	-8.89737
▁영화였다	-8.89823
▁찾아	-8.90084
▁배우들이	-8.90293
편이	-8.90468
▁준다	-8.9058
▁스토리는	-8.90622
기가	-8.90636
이야기	-8.90662
없고	-8.9071
▁생각을	-8.90735
듯한	-8.90786
▁장난	-8.90921
▁있을까	-8.91057
추	-8.91061
났	-8.9112
낸	-8.91296
▁갈	-8.91321
▁평가	-8.91402
영화가	-8.91405
▁나왔	-8.91436
▁감동을	-8.91466
▁꿀잼	-8.91502
▁당	-8.91702
D	-8.91707
먼	-8.91715
▁카	-8.91903
적이	-8.91954
겠지	-8.92037
덕	-8.92078
▁영상미	-8.9217
을때	-8.92283
▁멜로	-8.92427
눈	-8.92442
~!!	-8.92445
▁중간에	-8.92557
▁존재	-8.92583
린다	-8.92593
▁않았	-8.92704
세요	-8.9288
▁글	-8.92994
▁힘	-8.9307
▁버	-8.93127
▁힘들	-8.93223
쉬	-8.93268
▁모습	-8.93324
▁얘기	-8.93415
웃	-8.93481
겠	-8.93527
그리고	-8.93589
▁찾	-8.93609
해지는	-8.93628
잔	-8.93648
▁뭐야	-8.93669
ᄉ	-8.93686
혜	-8.93691
b	-8.93873
▁판타지	-8.93898
척	-8.94055
▁봤지만	-8.94081
▁얼굴	-8.9418
▁바로	-8.94204
▁충격	-8.94253
▁감성	-8.94294
▁언제	-8.94388
약	-8.94442
월	-8.94443
▁관객	-8.94482
광	-8.94483
▁줄거리	-8.94587
▁영화인데	-8.94713
▁나와서	-8.94873
▁재미있어요	-8.9506
▁편	-8.9508
▁나이	-8.95254
▁딸	-8.95289
탈	-8.95329
션	-8.95636
▁영화임	-8.95696
▁생각하게	-8.95752
c	-8.95804
법	-8.95966
▁달	-8.96036
익	-8.96049
♡	-8.96049
▁여주인공	-8.96095
"	-8.96147
▁나올	-8.96171
▁뭐지	-8.96252
이라도	-8.96796
▁높은	-8.96811
-_-	-8.96911
▁어디서	-8.97009
리고	-8.9717
▁이영화를	-8.9721
빈	-8.9742
▁뒤	-8.97478
▁악	-8.97512
▁비해	-8.97643
▁이름	-8.977
것이	-8.97755
▁암	-8.97773
▁소리	-8.97839
주의	-8.97857
▁tv	-8.97885
▁종	-8.9789
있고	-8.97939
▁재미있	-8.98128
▁추억	-8.98193
혀	-8.9832
▁관	-8.9833
▁각본	-8.98445
엇	-8.98456
좋은	-8.98569
편은	-8.98583
▁방	-8.98699
m	-8.9879
메	-8.98858
봐서	-8.98982
▁그대로	-8.98998
커	-8.99118
으나	-8.99121
▁역사	-8.9921
기만	-8.99227
는건	-8.99308
▁포스터	-8.99333
▁아이들	-8.99354
분들	-8.99364
찍	-8.99499
▁장르	-8.9952
▁여기	-8.99552
▁데	-8.99565
료	-8.99611
▁실화	-8.99649
y	-8.99738
▁나의	-8.99851
▁혼자	-8.99906
▁같은데	-9.00035
숙	-9.00106
~~~~	-9.00321
_	-9.00356
찬	-9.00416
▁이런영화	-9.00468
효	-9.00482
▁몰입	-9.00666
▁봤음	-9.00711
시리즈	-9.00865
▁거의	-9.00884
▁초딩	-9.01056
귀	-9.01127
외	-9.01158
잖아	-9.01229
▁봐서	-9.01286
없음	-9.0129
햇	-9.01351
▁예상	-9.01435
복	-9.01457
▁봐라	-9.01751
▁좋은영화	-9.01794
같이	-9.01812
▁사회	-9.01864
▁비디오	-9.01921
▁너무너무	-9.02129
▁대단한	-9.02179
들어	-9.02308
▁크	-9.02344
▁만점	-9.02357
▁질	-9.0236
▁대해	-9.02376
OO	-9.02405
▁머리	-9.02421
나오	-9.02456
슴	-9.02459
▁사람들이	-9.02509
▁끝나	-9.02583
재밋	-9.0261
▁아까움	-9.02619
▁상당히	-9.02633
▁레	-9.0266
▁했는데	-9.02928
다는	-9.03057
목	-9.03133
놈	-9.03282
▁봐	-9.03297
▁90	-9.03309
▁주제	-9.03339
▁친구	-9.03447
채	-9.03504
▁감정	-9.03547
▁것을	-9.03639
구요	-9.03755
튼	-9.0384
▁그러	-9.04112
떨어	-9.04201
▁훌륭한	-9.04234
▁마음에	-9.04644
년전	-9.04646
▁패	-9.04659
▁원작을	-9.04715
마지막	-9.04765
▁휴	-9.04832
패	-9.04847
▁궁금	-9.04865
▁어릴때	-9.04877
최악	-9.04881
▁변	-9.04911
근데	-9.05033
올	-9.05096
▁자기	-9.05136
독	-9.05276
▁아직	-9.05397
앗	-9.05406
곡	-9.05458
▁삼	-9.05475
이라면	-9.05478
지루	-9.05553
▁다음	-9.056
ᄀ	-9.05619
▁뭐냐	-9.05815
줘	-9.05917
▁다시봐도	-9.05972
▁그리	-9.0609
청	-9.06171
▁제작	-9.06382
▁여배우	-9.06435
▁몸	-9.06493
▁흥행	-9.06537
남자	-9.06577
▁된다	-9.06587
했어요	-9.06738
▁감독님	-9.06756
▁상황	-9.06796
▁저런	-9.06829
▁순	-9.06954
씩	-9.06955
▁부족	-9.07032
▁평점을	-9.07206
▁장면이	-9.07373
▁새로운	-9.07426
▁먹먹	-9.07434
▁더럽게	-9.07445
▁배경	-9.0746
▁옛날	-9.0746
▁숨	-9.07497
한거	-9.07498
별로	-9.07639
다시	-9.07856
▁극장판	-9.07887
보기	-9.0792
▁TV	-9.07963
▁짜증	-9.08158
▁굉장히	-9.08301
침	-9.08368
▁영화도	-9.08381
▁감동적이	-9.0844
▁누구	-9.08489
▁그러나	-9.08666
억	-9.08713
▁좋네요	-9.08719
시키	-9.09002
대박	-9.09021
▁뭐가	-9.09177
츠	-9.09203
................	-9.09256
▁분	-9.09285
스럽다	-9.09329
조차	-9.09382
거리	-9.09415
▁화면	-9.0949
▁연출력	-9.09604
쯤	-9.09621
▁팬	-9.09679
▁삼류	-9.09685
했습니다	-9.09849
▁처음부터	-9.09853
들도	-9.09861
으니	-9.10034
▁재밌었다	-9.1019
▁낫다	-9.10192
건데	-9.10195
▁그런지	-9.10271
▁정도로	-9.10325
▁어디	-9.10454
▁빨리	-9.10463
▁항상	-9.10575
▁있지만	-9.10608
써	-9.10641
모르	-9.10744
▁성우	-9.10828
추천	-9.10872
▁왕	-9.11005
▁초반	-9.1117
라니	-9.11199
▁보니	-9.1124
끝	-9.11299
▁하지	-9.11317
에선	-9.11449
쪽	-9.11497
▁만들었	-9.11556
▁살아	-9.11657
▁통	-9.11706
▁유치한	-9.12014
▁그닥	-9.12079
받	-9.12086
길래	-9.1211
▁가는	-9.12315
????	-9.12386
▁재밌는데	-9.12404
▁예전에	-9.12419
땐	-9.1243
▁b	-9.12453
▁따뜻한	-9.126
술	-9.12675
▁안된다	-9.12679
▁흥미진진	-9.12732
▁것도	-9.12874
듬	-9.12998
▁의도	-9.13015
본다	-9.13027
▁봄	-9.1306
▁아버지	-9.13062
전개	-9.13139
▁충분히	-9.13221
▁잘못	-9.13453
▁세계	-9.13574
했으면	-9.13608
▁첫	-9.13617
도없고	-9.1386
▁이것도	-9.13894
▁제가	-9.13949
▁양	-9.13962
▁생각해	-9.14141
▁계	-9.142
▁리	-9.14238
이라니	-9.14239
나라	-9.14267
▁헐	-9.14277
다면	-9.14328
▁못하는	-9.14345
▁앞	-9.14397
▁말고	-9.14402
▁(	-9.14455
▁두번	-9.14559
▁있어	-9.14562
▁그것	-9.14562
같다	-9.14574
▁했다	-9.14589
에는	-9.14855
명작	-9.14923
정도로	-9.14941
▁좋겠다	-9.14945
일까	-9.15091
▁교훈	-9.15126
▁슬픈	-9.1523
필	-9.15264
배우들	-9.15277
같	-9.15421
▁있어서	-9.15447
▁뻔	-9.15478
▁영화라	-9.15524
▁만족	-9.15546
▁돌아	-9.15605
▁믿	-9.15666
링	-9.15763
▁돈주고	-9.1581
▁스릴	-9.1607
한영화	-9.16158
▁도저히	-9.16249
▁봤네요	-9.16315
w	-9.16353
였는데	-9.164
▁윤	-9.16403
▁그래픽	-9.16445
▁ᄍᄍ	-9.16451
▁없네	-9.16531
처음	-9.16577
▁되어	-9.16732
만든	-9.16808
f	-9.16818
:	-9.16843
노잼	-9.16885
▁없어서	-9.16902
버리	-9.1709
간다	-9.1712
성이	-9.17145
▁나와	-9.17146
팬	-9.17183
▁바라	-9.1721
철	-9.17382
▁점점	-9.17424
만으로도	-9.17473
것같다	-9.17571
셨	-9.17707
▁낮은	-9.17708
▁지루해	-9.17716
하시	-9.17728
▁번	-9.17829
▁말도	-9.1783
▁이영화는	-9.17861
▁나온다	-9.17937
하냐	-9.18022
▁현	-9.18035
많	-9.18039
겟	-9.18045
하여	-9.18062
런	-9.18063
답	-9.18085
▁산	-9.18119
껏	-9.18215
▁흠	-9.18235
거다	-9.18361
▁찍	-9.18376
고싶다	-9.18491
그런	-9.18492
▁요	-9.18519
▁어린	-9.18579
▁낮	-9.18643
▁돌	-9.18693
▁완벽한	-9.18836
▁100	-9.19041
▁저는	-9.19145
▁갑자기	-9.19279
▁자체가	-9.19331
괴	-9.19459
▁M	-9.19511
짝	-9.19627
사람들	-9.19655
속에	-9.19675
▁놀	-9.19708
▁알았	-9.19855
▁한마디로	-9.19981
내가	-9.19985
▁만들지	-9.20079
▁짜	-9.20173
주세요	-9.20188
▁무조건	-9.2022
거냐	-9.20244
을듯	-9.20315
▁평점에	-9.20317
봐라	-9.20484
벌	-9.20537
센	-9.20727
▁엄청난	-9.20835
▁평점은	-9.20883
음악	-9.2096
하니	-9.20995
▁시절	-9.21
▁좋음	-9.21012
▁보여주	-9.21038
윤	-9.21074
▁지금까지	-9.21212
멋	-9.21224
▁불륜	-9.21248
▁어렸을때	-9.21335
되어	-9.21336
지금	-9.21387
▁망작	-9.21466
적이고	-9.21613
▁영화보다	-9.21638
▁완벽	-9.21649
▁있었다	-9.21671
들에게	-9.21711
▁여주	-9.21778
▁볼만	-9.21783
▁바보	-9.21838
▁일단	-9.21927
▁맛	-9.21984
▁반전이	-9.22087
▁무서운	-9.22093
▁재미있고	-9.22106
▁볼수	-9.22118
▁병맛	-9.22122
도록	-9.22165
▁작	-9.22197
▁깨	-9.22203
▁일본영화	-9.22272
▁알았다	-9.22345
▁극장	-9.22389
품	-9.22462
▁힘든	-9.22502
▁허무	-9.22566
나서	-9.22625
뜨	-9.22682
겠지만	-9.22702
▁설	-9.22755
염	-9.22784
▁훌륭	-9.22802
▁웃긴	-9.22889
▁재미없어	-9.2294
이에요	-9.22996
완	-9.23006
▁주인공이	-9.23115
보다가	-9.23123
롭	-9.23128
휴	-9.23148
▁이정도	-9.23311
웃음	-9.23424
년도	-9.23455
▁생	-9.23472
웠	-9.23503
▁광	-9.23516
▁괜찮	-9.23548
주인공	-9.23596
허	-9.23622
▁모르고	-9.23631
만한	-9.2383
▁전형적인	-9.23851
▁더욱	-9.23904
이냐	-9.23953
▁좋았어요	-9.23962
리가	-9.23989
▁떠	-9.2413
거나	-9.24214
▁보는데	-9.24244
얼	-9.24298
▁사람은	-9.24458
▁없을	-9.24514
연출	-9.24683
▁아쉽	-9.24689
갑	-9.24816
▁아쉬운	-9.24885
였습니다	-9.24918
▁감독은	-9.24943
▁사랑을	-9.24972
▁돈이	-9.25059
▁몰	-9.25101
였던	-9.25146
▁대단	-9.25179
▁아이들이	-9.25205
▁킬링타임용	-9.25259
▁자꾸	-9.25266
▁개연성	-9.25309
▁것은	-9.25358
밀	-9.25368
재미없	-9.25384
십	-9.25403
▁80	-9.25407
싸	-9.25409
책	-9.25413
▁참고	-9.25422
점짜리	-9.25502
놈들	-9.25647
한데	-9.25666
많이	-9.25742
보다는	-9.25752
▁알게	-9.25766
한번	-9.2582
변	-9.25929
봐야	-9.25957
풍	-9.25981
^	-9.2603
놀	-9.26046
▁원래	-9.26067
리스	-9.26079
▁믿고	-9.26175
▁역	-9.26188
▁부족한	-9.26276
▁새	-9.26301
아깝다	-9.26317
엉	-9.26396
▁재미없고	-9.26463
예요	-9.26505
▁책	-9.26565
함이	-9.2668
▁소설	-9.26764
춘	-9.27014
▁SF	-9.27031
--	-9.27094
▁대작	-9.27108
딱	-9.27124
▁선택	-9.27145
▁순간	-9.27152
굿	-9.27167
년에	-9.27451
▁스타일	-9.27457
▁괜히	-9.27573
보는데	-9.27593
▁가지고	-9.27624
▁이런걸	-9.2779
에요	-9.27819
졌다	-9.27831
▁없네요	-9.27996
▁저질	-9.28001
겁	-9.28007
▁s	-9.2803
▁예고편	-9.28052
꼭	-9.28264
▁설명	-9.28271
곤	-9.28278
▁전개가	-9.28353
하던	-9.28385
줬	-9.28398
▁목소리	-9.28461
삼	-9.28485
픈	-9.28485
▁작품성	-9.28493
시대	-9.286
▁슬프	-9.28656
▁리메이크	-9.28668
▁써	-9.28796
함을	-9.28809
▁시대	-9.28811
▁대단하다	-9.29152
▁느낄	-9.29175
규	-9.2922
렌	-9.2922
▁ᄒᄒᄒ	-9.29311
▁좀비	-9.29317
▁왜이리	-9.29395
▁괴	-9.29403
▁액션도	-9.29415
▁으	-9.29423
드는	-9.2945
킹	-9.29776
▁청춘	-9.29783
부분	-9.298
▁진실	-9.29841
자들	-9.29904
▁느끼게	-9.30077
▁댓글	-9.30173
걸까	-9.30183
▁싸	-9.30188
육	-9.30325
▁완성도	-9.30335
▁우연히	-9.30355
역시	-9.30367
▁문	-9.30512
영화다	-9.30529
꼬	-9.30576
▁노력	-9.30585
▁터	-9.30673
▁이리	-9.30725
▁처음으로	-9.30799
랄	-9.30805
북	-9.30831
끔	-9.30857
▁했	-9.30993
▁않을	-9.31014
▁집	-9.31036
그래도	-9.31056
▁등	-9.3126
▁미화	-9.31263
▁지금도	-9.3127
▁없었	-9.31293
네여	-9.31334
▁화이팅	-9.31385
▁지루하지	-9.31394
▁재밌어	-9.31491
을텐데	-9.31516
00	-9.31521
▁기대하고	-9.31561
▁느	-9.31589
▁아오	-9.31668
맛	-9.31736
▁프랑스	-9.31745
▁당신	-9.31815
▁흐	-9.31994
축	-9.32016
▁편집	-9.32023
슈	-9.32029
▁후반부	-9.32119
▁유머	-9.32133
야지	-9.32164
▁지루하	-9.32181
▁속편	-9.32269
▁액션영화	-9.32297
▁신기	-9.32339
▁안나오	-9.32374
▁해준	-9.32398
하는게	-9.32526
▁여운	-9.32558
▁ost	-9.32588
▁코메디	-9.32588
점준다	-9.32605
▁명작이다	-9.32614
▁투	-9.32731
결말	-9.32746
립	-9.32788
ᅲᅲᅲ	-9.32809
몰	-9.32931
▁쳐	-9.32944
▁태	-9.32947
여서	-9.32967
▁유치하고	-9.32983
▁귀신	-9.32989
좋다	-9.33008
▁그때	-9.33045
재밌게	-9.33054
는것	-9.33083
▁이런거	-9.33091
▁해도	-9.33109
▁전기세	-9.33177
이게	-9.33237
▁내인생	-9.3326
▁하다	-9.33295
시절	-9.33318
▁상영	-9.33336
봤어요	-9.33359
▁성장	-9.33383
▁자연	-9.33396
견	-9.33505
▁전작	-9.33526
로운	-9.33679
x	-9.33753
▁귀여운	-9.33768
▁겁나	-9.33779
▁천재	-9.33819
▁여성	-9.3382
▁졸라	-9.34245
▁됐	-9.34326
▁아무것도	-9.34384
▁재밌었어요	-9.34419
▁아닌가	-9.34431
▁이상한	-9.3444
됐	-9.34464
▁온	-9.345
▁마무리	-9.34622
▁있는데	-9.34644
▁교	-9.34664
애들	-9.34841
▁늘	-9.34858
봣	-9.34983
하세요	-9.35021
▁억지로	-9.35027
▁알았는데	-9.35036
▁있음	-9.35061
▁세상	-9.35076
인거	-9.35179
▁귀	-9.35265
▁상상	-9.35311
것을	-9.3534
되고	-9.35342
하긴	-9.35472
▁낚	-9.35478
▁연출이	-9.35641
▁시간낭비	-9.3568
▁나만	-9.35681
▁과거	-9.35734
▁죽음	-9.35825
들과	-9.35833
말이	-9.35873
지않는	-9.36073
▁ᄏᄏᄏᄏᄏ	-9.36158
하는거	-9.3628
▁이유	-9.36295
ᅲᅲᅲᅲ	-9.36297
겠네	-9.36357
지고	-9.36471
최고의	-9.36646
징	-9.3666
킬	-9.36691
▁불편	-9.3671
▁빠져	-9.36851
▁안보	-9.36855
빵	-9.3689
놓	-9.369
▁감상	-9.36963
▁둘	-9.37002
▁왠지	-9.37004
준다	-9.3711
▁이후	-9.37117
▁싶어	-9.37136
코미디	-9.37239
손	-9.37249
▁그래	-9.37276
▁이야기를	-9.37323
▁관람	-9.37352
▁이번	-9.37354
▁이미	-9.37469
▁진부한	-9.37484
▁아까워	-9.37515
마다	-9.37655
황	-9.3774
애니	-9.37803
졸	-9.37828
▁황	-9.37868
혹	-9.3789
&	-9.37896
힌	-9.37896
▁느끼	-9.37925
▁쓴	-9.38108
▁감사	-9.38142
▁이쁘	-9.3815
빨	-9.3816
▁모르는	-9.38187
돼	-9.38294
엿	-9.38499
흐	-9.38508
▁끌	-9.38534
▁영화였습니다	-9.3859
▁나쁜	-9.38591
▁방송	-9.38592
어도	-9.38593
눈물	-9.38616
▁상상력	-9.38616
▁않음	-9.38629
▁짜증나	-9.3864
▁끝내	-9.387
▁인간의	-9.38735
▁가치	-9.38755
▁인정	-9.38817
오글	-9.38923
주고	-9.39056
▁질질	-9.39073
▁매력적인	-9.39073
지않은	-9.39087
▁진행	-9.39143
▁수가	-9.39205
해주는	-9.39211
했고	-9.39298
랬	-9.39539
▁브	-9.39595
▁화려한	-9.39639
▁뭔지	-9.39733
▁슬	-9.39738
가서	-9.39789
▁분명	-9.398
수록	-9.39814
최	-9.39818
시켜	-9.39862
반전	-9.39917
▁꼬	-9.39977
족	-9.39986
▁허접한	-9.40002
▁한계	-9.40011
▁창	-9.40022
▁잘봤습니다	-9.40082
로서	-9.401
것이다	-9.40113
전에	-9.40134
안되	-9.40141
▁대한민국	-9.40151
▁최악이다	-9.40235
...........	-9.40239
자가	-9.40282
앙	-9.40316
▁그게	-9.40318
G	-9.40328
인간	-9.4033
T	-9.4042
▁만나	-9.40446
마저	-9.40608
▁좋았음	-9.40635
▁소재는	-9.40701
보세요	-9.40812
▁까	-9.40839
인이	-9.40851
가족	-9.40855
영환	-9.40925
에겐	-9.41049
강추	-9.41118
▁비슷한	-9.41127
▁독	-9.41145
▁저도	-9.41158
작가	-9.41237
~^^	-9.41286
는걸	-9.41404
▁나에게	-9.4148
▁로맨틱	-9.4158
E	-9.41589
ᄆ	-9.41589
▁밑에	-9.41608
셔	-9.41671
영화중	-9.41729
▁우울	-9.41785
▁복수	-9.41819
럽	-9.41857
▁영화중에	-9.41862
▁생각나	-9.41882
▁살인	-9.41926
▁훨	-9.42004
▁않았다	-9.42266
▁지금봐도	-9.42348
성을	-9.4238
▁결혼	-9.42475
▁트	-9.42677
▁유쾌한	-9.42884
▁흥미	-9.42891
▁앞으로	-9.42908
든다	-9.42991
▁왜이렇게	-9.4302
▁중에	-9.43037
▁배우가	-9.4304
풀	-9.4305
▁사람들은	-9.43108
감이	-9.43182
갔다	-9.43281
놓은	-9.43295
찰	-9.43409
령	-9.43441
벨	-9.43488
났다	-9.43511
▁현재	-9.43542
으면서	-9.4368
▁해서	-9.43695
만으로	-9.43753
확	-9.43753
▁특유의	-9.43773
▁촬영	-9.43801
▁이런게	-9.43864
오는	-9.44007
싱	-9.44127
몬	-9.44129
없어	-9.4415
▁어찌	-9.44176
▁만들었다	-9.44182
▁좋았습니다	-9.44191
//	-9.44217
▁수준이	-9.44233
▁유쾌	-9.44256
하자	-9.44272
▁바람	-9.44287
보게	-9.4433
▁형	-9.44381
ᄒᄒᄒ	-9.44384
실망	-9.44429
▁아니지만	-9.44466
▁아빠	-9.44504
보면서	-9.44532
▁어이없	-9.44544
▁낭비	-9.44704
▁보고나서	-9.4475
▁봤었는데	-9.44852
아닌	-9.44874
가지	-9.44907
틀	-9.45007
갔	-9.45027
▁잘만든	-9.45034
▁맥	-9.45085
동안	-9.45092
▁것이다	-9.45136
▁이어	-9.45165
▁개그	-9.45214
▁이러	-9.45228
▁지난	-9.4528
▁절	-9.45312
다운	-9.45328
흔	-9.45356
버렸다	-9.45415
▁-_-	-9.45511
▁확	-9.45558
▁엉성	-9.45572
▁게임	-9.45582
▁듯한	-9.45733
봉	-9.45818
▁귀엽고	-9.45874
▁눈이	-9.45894
▁마음을	-9.45904
였어요	-9.45912
▁인상	-9.45959
▁합니다	-9.46058
▁good	-9.46135
▁처	-9.4621
▁그랬	-9.46274
▁지나	-9.46303
▁황당	-9.46338
뒤	-9.46423
홍	-9.46429
봤음	-9.46435
▁노출	-9.46452
▁분들	-9.46533
ᄃ	-9.46605
쩔	-9.46645
언니	-9.46673
▁디	-9.46731
꾸	-9.46738
▁니	-9.4678
▁역대	-9.46848
▁떠나	-9.46886
▁별루	-9.47013
시간이	-9.47051
쿠	-9.47112
▁신선	-9.47194
이면	-9.4734
텐데	-9.47379
▁깊이	-9.47397
▁아놔	-9.47523
▁액션이	-9.47547
▁아름답다	-9.47697
나옴	-9.47746
▁남주	-9.47798
암	-9.47807
스타	-9.47811
면서도	-9.47873
영상	-9.47886
▁이영화가	-9.47937
▁C	-9.47948
▁갑	-9.48049
▁프로	-9.48151
▁심심	-9.48203
▁모르겠	-9.48304
▁자유	-9.48351
쇼	-9.48507
욱	-9.48565
했어	-9.48633
▁성인	-9.48656
틴	-9.48687
껄	-9.48735
쁘	-9.4875
▁확실히	-9.48768
▁좋았는데	-9.48832
▁사랑이	-9.48922
▁티	-9.49025
이렇게	-9.49039
이제	-9.4905
▁신선한	-9.49107
▁답	-9.49185
▁어이없는	-9.49237
▁매력이	-9.49308
ᄂ	-9.49393
잉	-9.494
▁메세지	-9.49414
▁여전히	-9.49442
▁있다는	-9.4945
▁스토리에	-9.49458
▁해주는	-9.49626
▁목	-9.49683
▁느껴지는	-9.49856
▁시청률	-9.49881
▁비추	-9.49911
▁보지마세요	-9.4993
▁인물	-9.50042
깔	-9.50085
▁이연걸	-9.50092
려는	-9.50142
*	-9.50163
▁넘어	-9.50216
▁감사합니다	-9.50226
▁모습이	-9.50256
▁키	-9.50262
▁짱짱	-9.50269
▁어색한	-9.5029
스런	-9.50293
페	-9.50325
▁전편	-9.50438
▁놓	-9.50516
▁골	-9.50659
▁돋보	-9.50671
▁금	-9.50699
▁범죄	-9.507
스터	-9.50701
▁얼	-9.50731
즐	-9.50744
떡	-9.50775
턴	-9.50776
▁어릴적	-9.50826
었으면	-9.50826
▁처음이다	-9.50834
▁일상	-9.50869
▁보고싶다	-9.50892
▁똑같	-9.50909
;;;;	-9.50924
▁동화	-9.5095
▁그런가	-9.50996
▁취향	-9.51066
▁알바들	-9.51093
▁감동적이고	-9.51104
지마라	-9.51125
▁같네요	-9.51132
▁그녀	-9.51158
코드	-9.51182
거같다	-9.51208
▁맞는	-9.51265
▁한편	-9.51276
나게	-9.51293
점주는	-9.51299
누	-9.51308
▁어색	-9.51351
S	-9.5136
▁좋았고	-9.51368
▁장면은	-9.51387
▁정치	-9.51414
▁아닌듯	-9.51459
았던	-9.5146
거임	-9.5146
땅	-9.51465
▁섹시	-9.51468
▁보여준	-9.51495
▁좋았	-9.51542
▁너무나도	-9.51543
▁찍은	-9.51581
곳	-9.5159
▁재밌었는데	-9.51631
ᄍᄍ	-9.51786
▁영웅	-9.51795
▁답답	-9.51832
▁독특한	-9.51886
▁눈을	-9.51896
한건	-9.5192
▁입니다	-9.51924
▁세상에	-9.51971
쩌	-9.51996
한듯	-9.52137
했을	-9.52157
▁그렇고	-9.5216
▁스케일	-9.5216
▁했지만	-9.52166
했는지	-9.5219
▁먼저	-9.52193
!!!!!	-9.5224
▁있었던	-9.52433
아이	-9.52453
▁표정	-9.52587
제목	-9.5261
▁대충	-9.52693
옥	-9.52712
▁그림	-9.52912
닥	-9.52913
순간	-9.5294
▁마라	-9.5294
▁소름	-9.52987
▁ᄉᄇ	-9.53047
▁단순	-9.53056
▁명작이	-9.53061
소재	-9.53134
▁시선	-9.53169
▁잼없	-9.53176
재미없다	-9.53251
다른	-9.53395
▁빨	-9.53407
▁몰랐	-9.53428
짜리	-9.53452
엄	-9.53459
급영화	-9.53516
▁깊은	-9.53563
▁글쎄	-9.53566
▁본다	-9.53572
▁잼있게	-9.53577
되지	-9.53643
무슨	-9.53692
▁주인공들	-9.53748
20	-9.53818
킨	-9.53823
▁평론가	-9.53823
▁이젠	-9.53858
▁복	-9.5387
▁좋을	-9.53908
좋아요	-9.53924
하라	-9.53929
드라	-9.54045
만들어	-9.54205
묘	-9.5422
▁클	-9.54276
▁와닿	-9.54299
나온	-9.54358
▁사이	-9.54362
▁성공	-9.54382
▁하면	-9.54384
었습니다	-9.5439
▁같습니다	-9.5443
더군요	-9.54474
▁요소	-9.54503
▁돌려	-9.54536
▁작품이	-9.54669
▁그런데	-9.54689
들아	-9.54706
▁알수	-9.54709
▁아들	-9.54898
릭	-9.54953
특히	-9.54969
ᄏᄏᄏᄏᄏ	-9.54978
마음	-9.5501
▁기대를	-9.5502
=	-9.55026
깨	-9.5504
무섭	-9.55081
줘야	-9.55098
모습	-9.55125
▁재밌습니다	-9.55216
사람이	-9.55228
▁보는게	-9.55232
%	-9.55245
▁아름답고	-9.55259
▁볼때마다	-9.55273
▁15	-9.553
▁젤	-9.55321
▁캐릭터들	-9.55367
념	-9.55432
▁cg	-9.5548
▁아깝	-9.55503
먹는	-9.55561
▁알아	-9.556
▁물론	-9.55611
▁촌	-9.55646
ᄅ	-9.55705
P	-9.55706
송	-9.55729
▁조폭	-9.55749
▁감탄	-9.55769
▁저예산	-9.55771
▁보이는	-9.55786
일뿐	-9.5587
▁법	-9.55896
▁애들이	-9.56083
친구	-9.56165
▁꺼	-9.56179
▁이야기가	-9.56188
▁독립영화	-9.56276
유치	-9.56308
▁삶을	-9.56314
▁남는다	-9.56339
량	-9.56406
▁나를	-9.56418
압	-9.56423
널	-9.56425
▁완	-9.56438
▁누	-9.5649
▁OST	-9.56528
C	-9.56539
▁역시나	-9.56551
▁드	-9.56633
▁+	-9.5665
려서	-9.56775
재밌어요	-9.56788
▁밀	-9.568
▁연기력이	-9.56823
▁A	-9.56932
▁이것	-9.56954
▁19	-9.57043
으며	-9.5709
ᅡ	-9.57161
▁표	-9.57171
▁표절	-9.57184
▁근	-9.57227
찌	-9.57248
응	-9.57264
▁갖	-9.57292
▁심리	-9.57299
팔	-9.57308
둘	-9.5731
▁다소	-9.57323
or	-9.57359
나올	-9.57371
드리	-9.57378
▁실제	-9.57489
▁회	-9.5751
▁벗	-9.57524
▁순수한	-9.57525
▁평생	-9.57608
▁리얼	-9.57613
▁필요없다	-9.57618
▁보기엔	-9.57766
허술	-9.57822
혁	-9.57891
롱	-9.57896
▁티비	-9.57905
▁전체적으로	-9.57917
활	-9.57929
던가	-9.57987
▁연애	-9.58011
▁액션은	-9.58041
▁무섭	-9.58094
줌	-9.58108
▁재미있음	-9.58217
▁관계	-9.58253
람	-9.58315
수도	-9.58422
▁씨	-9.58477
▁싫어	-9.58512
▁몇번을	-9.58513
▁안하고	-9.58556
▁아저씨	-9.58672
▁나라	-9.58704
▁아닐까	-9.58704
▁관심	-9.58723
▁희망	-9.58736
▁이정도면	-9.58832
▁호러	-9.58848
시다	-9.58913
오빠	-9.59023
▁재밌었	-9.59125
▁음악이	-9.59128
,,,,	-9.59148
지마	-9.59152
▁짧	-9.59154
내요	-9.59252
▁보이	-9.59275
▁무엇보다	-9.59387
▁보시길	-9.59474
▁있다면	-9.59493
던지	-9.59494
스가	-9.59525
▁봐야할	-9.59533
▁여자들	-9.59552
▁추천합니다	-9.59558
▁생각나는	-9.59583
버리고	-9.59614
콩	-9.59624
됬	-9.59626
▁웃겨	-9.59752
▁서로	-9.59796
개도	-9.59799
왔다	-9.59874
▁아니면	-9.59889
시고	-9.60031
그러	-9.60075
▁끝난	-9.60102
▁딴	-9.60104
▁긴장	-9.60105
▁미치	-9.60105
덤	-9.60135
것들	-9.60136
▁슬픔	-9.60138
▁예쁜	-9.60143
▁슬프다	-9.60294
보이	-9.60325
▁어쩌	-9.60452
▁뒷	-9.60455
▁재미있네요	-9.6046
▁끝나고	-9.60504
▁놀라	-9.60628
▁멀	-9.60673
▁오히려	-9.60758
▁송	-9.60809
득	-9.60843
▁권	-9.6089
갓	-9.60893
휘	-9.60893
있게	-9.60916
었지만	-9.60961
▁기분이	-9.60989
▁봤다가	-9.61039
▁받	-9.61056
분이	-9.61069
▁스토리와	-9.61117
▁떨어지는	-9.61118
▁홍콩	-9.61142
▁싫다	-9.61205
▁예전	-9.61214
▁긴	-9.61378
▁임	-9.61386
▁드라마가	-9.61388
들고	-9.61412
와서	-9.61463
▁시원	-9.61506
▁여자가	-9.61509
하다니	-9.61522
인의	-9.61527
▁받았	-9.61548
▁벌	-9.61567
새끼	-9.61631
없네	-9.61646
누나	-9.61653
▁압권	-9.61657
▁급	-9.61734
▁고민	-9.61792
▁티비에서	-9.61849
▁느껴	-9.61864
▁언	-9.61897
▁나왔으면	-9.6191
▁필요없는	-9.6196
▁있나	-9.6198
인것	-9.61985
끝나	-9.62018
총	-9.62022
▁않아	-9.62038
잼있	-9.62093
▁영화관	-9.62137
탕	-9.62155
아깝	-9.62184
▁탈	-9.62241
▁현대	-9.62257
▁용	-9.62282
흘	-9.62385
따위	-9.62409
▁디즈니	-9.62425
▁살짝	-9.62455
▁부분	-9.62468
▁몸매	-9.62468
▁빼	-9.62498
v	-9.62527
▁싫	-9.62856
▁이유가	-9.62895
▁난다	-9.62897
▁지루해서	-9.62919
▁보았	-9.62933
▁언제나	-9.62956
만화	-9.63001
▁프로그램	-9.63046
▁I	-9.6308
▁짠	-9.63097
걸로	-9.63141
년전에	-9.63229
▁맨	-9.63304
평점이	-9.6334
늘	-9.63357
▁설레	-9.63452
▁용서	-9.63462
▁고전	-9.6356
▁재미없네	-9.636
▁짓	-9.636
▁보고싶은	-9.63643
▁짜증나는	-9.63736
▁<	-9.63739
인생	-9.63886
▁엉성한	-9.63972
★	-9.63984
▁범인	-9.64018
▁괴물	-9.64081
▁붙	-9.64087
▁좋았던	-9.64095
▁이하	-9.64149
▁사극	-9.64196
▁취	-9.64279
▁아닌데	-9.64349
충	-9.64371
▁얻	-9.64419
첨	-9.64434
취	-9.64439
아까운	-9.64464
▁평범한	-9.64529
재밌다	-9.64582
웅	-9.64689
율	-9.647
하면서도	-9.64719
좌	-9.64768
▁느낀	-9.64776
▁화가	-9.64839
할듯	-9.6489
때마다	-9.64905
내는	-9.64939
▁추억의	-9.64956
▁삶	-9.64971
▁미래	-9.64978
머리	-9.6502
▁연기와	-9.6503
ᄃᄃ	-9.6503
▁중간	-9.65069
연기가	-9.65084
▁몇번	-9.65088
in	-9.65129
아주	-9.65168
▁사건	-9.65194
되네요	-9.65195
▁커	-9.65196
▁죄	-9.65204
감독이	-9.65228
▁청	-9.6528
쓴	-9.65284
▁그의	-9.65307
버려	-9.6534
▁아깝지	-9.65342
▁드는	-9.65484
▁별로다	-9.65522
낼	-9.65563
스러움	-9.65563
▁행동	-9.65571
더라구요	-9.6566
▁카메라	-9.6567
▁볼수록	-9.65672
▁무지	-9.6573
▁꼴	-9.65883
나고	-9.65893
아님	-9.65907
말고	-9.65935
▁다르	-9.65971
▁더이상	-9.6605
죄	-9.66097
괜찮	-9.6611
▁중간중간	-9.66114
▁ᅮ	-9.66151
▁만들어진	-9.66228
세계	-9.66293
▁가볍게	-9.66363
닝	-9.66363
폰	-9.66363
▁후반	-9.66366
먹고	-9.66379
▁악역	-9.66409
▁외국	-9.66442
▁특	-9.66566
▁스타	-9.66611
▁드라마를	-9.66642
▁캐	-9.66692
▁연기에	-9.66727
▁나가	-9.6673
▁잔인하	-9.66787
알바	-9.66824
▁만드	-9.66835
▁마치	-9.66917
봤던	-9.66963
되서	-9.66991
▁달리	-9.67028
▁병	-9.67056
▁되게	-9.67096
▁봤으면	-9.67169
▁비주얼	-9.67169
▁소름돋	-9.67174
▁능력	-9.67187
줄이야	-9.67204
▁같음	-9.67222
▁그다지	-9.6725
▁사랑스러운	-9.67277
더만	-9.6738
▁동물	-9.67435
▁재밋게	-9.67459
▁몰입감	-9.67564
▁다큐멘터리	-9.67584
▁아련	-9.67619
르는	-9.67651
▁재미를	-9.67676
▁뮤지컬	-9.67693
진심	-9.6772
에서는	-9.67735
힘	-9.67771
쏘	-9.67978
뉴	-9.67982
번째	-9.68
것은	-9.68001
까진	-9.68035
▁홍	-9.68205
용으로	-9.68207
테러	-9.6824
ᅲᅲᅲᅲᅲ	-9.68253
▁믿을	-9.68266
an	-9.68285
▁사랑과	-9.68292
▁죽는	-9.68354
▁낫	-9.68376
▁빈	-9.68408
▁무섭다	-9.68567
랜	-9.6862
▁팔	-9.68632
뜻	-9.68634
▁어이가	-9.68638
어지는	-9.68651
▁못하고	-9.68808
있어	-9.68828
점준	-9.68847
▁군대	-9.68972
▁제작진	-9.69014
▁영화보고	-9.69021
안에	-9.69033
기분	-9.69058
▁이건뭐	-9.69156
봣는데	-9.69267
▁12	-9.69268
▁멋지다	-9.69313
시킨	-9.69324
▁킬링타임	-9.6936
▁부분이	-9.69376
▁영화이다	-9.6939
웃기	-9.69395
▁열심히	-9.69408
▁ᄃᄃ	-9.69502
▁전에	-9.69503
클	-9.69514
▁말로	-9.69519
B	-9.69527
▁봤었	-9.69528
방송	-9.69534
탁	-9.6959
▁퀄리티	-9.69592
j	-9.69628
▁힐링	-9.69629
▁리뷰	-9.69637
하구	-9.69711
▁감동과	-9.69767
생활	-9.69788
생겼	-9.69809
▁찍어	-9.69908
한다는	-9.69939
▁전달	-9.69967
▁시걸	-9.69983
▁소녀	-9.70018
하는지	-9.70059
▁옛날에	-9.70083
▁내용을	-9.70107
시는	-9.70109
좋고	-9.70117
▁높다	-9.70146
▁우정	-9.70169
▁나중에	-9.70211
▁소재를	-9.70218
▁출	-9.70264
▁재미있었다	-9.7034
섭	-9.70347
니깐	-9.70369
▁먼	-9.70388
딸	-9.70394
▁제목이	-9.70405
▁해야	-9.70415
스릴러	-9.70431
▁70	-9.70463
▁에로	-9.70473
▁가끔	-9.70507
▁생애	-9.70519
▁슬프고	-9.70544
▁올해	-9.70552
▁S	-9.70585
▁있지	-9.70662
▁빠	-9.70701
▁처음엔	-9.70744
▁재밌네	-9.70825
▁오버	-9.70832
▁썩	-9.70835
♥♥	-9.70847
▁춤	-9.70891
▁굿굿	-9.70916
▁다행	-9.70948
▁하게	-9.71001
▁모습을	-9.71062
▁포기	-9.71158
▁폭	-9.71162
▁볼거리	-9.71194
▁경찰	-9.7123
엘	-9.71255
▁불쾌	-9.71323
▁통해	-9.71365
▁멋	-9.7139
▁스토리를	-9.71439
re	-9.7149
▁풀어	-9.71561
프로	-9.7159
▁빛	-9.71611
▁킬링타임용으로	-9.71619
▁그럭저럭	-9.71622
하하하	-9.71631
웠다	-9.7172
▁나서	-9.71778
▁기본	-9.71781
▁해피엔딩	-9.71848
▁하는데	-9.7185
것만	-9.71876
▁이제야	-9.71895
▁안됨	-9.71895
였지만	-9.71951
시간에	-9.71989
많은	-9.72054
▁진심으로	-9.72099
틈	-9.72149
캐	-9.7215
아까움	-9.72156
▁시사회	-9.72183
▁사랑에	-9.72192
▁영화지만	-9.72194
▁유치함	-9.72266
▁삶의	-9.72287
▁그들의	-9.72537
내용이	-9.72597
▁함	-9.72686
▁같아	-9.72688
쳤	-9.72771
▁없나	-9.7279
▁남기	-9.72804
▁어쩔	-9.72862
험	-9.72875
폭	-9.72944
▁흘러	-9.72953
굴	-9.72987
▁싸구려	-9.73004
▁펑펑	-9.73005
▁방금	-9.73064
신이	-9.73084
▁말할	-9.73221
▁재밌었음	-9.7323
▁덜	-9.73235
▁결과	-9.73276
▁유치하다	-9.7332
▁화려	-9.73331
▁몰입이	-9.73368
▁미안	-9.73401
는건지	-9.73446
▁현실성	-9.73478
▁열정	-9.73487
님의	-9.73498
V	-9.73639
▁게이	-9.7364
▁공감이	-9.73665
한게	-9.73708
항	-9.73863
▁자신	-9.73864
▁기대안하고	-9.73868
▁과연	-9.73945
했네	-9.73991
▁40	-9.74043
▁웃기고	-9.74057
▁포장	-9.74075
▁굳	-9.74092
▁봣는데	-9.74099
▁음악도	-9.7417
▁미드	-9.74316
▁또한	-9.74392
▁죽어	-9.74455
영화로	-9.74472
▁이거보고	-9.74478
▁볼만하	-9.74551
▁국	-9.74574
▁듣	-9.74701
▁친	-9.74707
밑	-9.74709
▁올리	-9.74723
홀	-9.74727
농	-9.74735
힐	-9.74735
▁눈빛	-9.74754
골	-9.74805
볼만	-9.74957
필요	-9.74969
▁느와르	-9.7497
하려고	-9.75021
▁해주	-9.75025
▁운	-9.75027
▁잔잔하고	-9.75038
▁초반에	-9.75072
O	-9.75074
해준	-9.75078
▁사람을	-9.75096
▁메시지	-9.75113
▁달라	-9.75121
공포	-9.7514
.......	-9.75159
▁헛	-9.75184
on	-9.75189
▁어제	-9.75225
▁그린	-9.7527
▁개판	-9.75337
자체	-9.75337
기엔	-9.75348
겹	-9.75514
편보다	-9.75525
▁찡	-9.75576
▁느끼는	-9.75592
▁페	-9.75595
@	-9.75601
학생	-9.7561
▁저렇게	-9.75613
(?)	-9.75615
▁통쾌	-9.75623
▁귀엽	-9.75667
▁결	-9.75687
▁봣	-9.75697
!!!!!!!!!	-9.75708
▁분노	-9.7571
으론	-9.75728
▁다시한번	-9.7575
▁보고싶	-9.75794
▁아직까지	-9.75804
▁지루할	-9.75904
▁만든다	-9.75994
빼고	-9.76041
가슴	-9.7605
▁소재가	-9.76156
▁배우의	-9.76167
잃	-9.76195
ᄏᄏᄏᄏᄏᄏᄏᄏᄏᄏᄏᄏᄏᄏᄏᄏ	-9.76207
▁폭력	-9.76222
▁매력있	-9.76253
▁느낄수	-9.76257
▁나오고	-9.7636
푸	-9.76386
높	-9.76399
▁실패	-9.76481
X	-9.76486
▁아름다움	-9.76498
▁보러	-9.76519
케이	-9.76556
▁보여	-9.76572
▁베스트	-9.76573
▁낮아서	-9.76647
▁반전도	-9.76654
형님	-9.76667
끈	-9.76668
받고	-9.76675
........	-9.7675
하려는	-9.76778
▁팬이	-9.76818
▁인기	-9.76841
상을	-9.76864
프리	-9.76928
▁잊혀지지	-9.77015
▁만큼	-9.77118
▁쓰래기	-9.77193
▁각	-9.77323
나와	-9.77323
뿌	-9.77344
]	-9.77391
▁헐리우드	-9.77391
R	-9.77391
▁따뜻해지는	-9.77418
▁ᅲᅲᅲ	-9.77439
▁사랑하는	-9.77542
▁영국	-9.77543
▁즐겁게	-9.77551
하는것	-9.77624
▁남아	-9.77639
개봉	-9.77706
▁쫌	-9.77752
속에서	-9.77831
▁죽을	-9.77848
11	-9.78039
▁빌려	-9.78043
▁아는	-9.78058
▁퍼	-9.78136
째	-9.78144
▁든다	-9.782
▁인생을	-9.78228
▁젊은	-9.78229
▁로그인	-9.78292
▁섹스	-9.78297
냥	-9.78304
▁헤	-9.78317
▁종교	-9.78336
거같	-9.78346
▁안되고	-9.78347
▁이기	-9.78418
▁최근	-9.78447
아까워	-9.78524
잠	-9.78533
낫	-9.78573
A	-9.78575
구성	-9.78578
영화라고	-9.78621
▁c	-9.78665
▁꾸	-9.78695
▁정말로	-9.78795
▁좋아서	-9.78803
▁했던	-9.78815
▁등장	-9.78873
영화의	-9.78895
▁칼	-9.78899
ᅲᅮ	-9.78902
함과	-9.78938
▁괜찮았	-9.78952
▁시대를	-9.78953
▁푹	-9.78959
▁남을	-9.79021
점수	-9.79023
놔	-9.79028
▁드럽게	-9.79036
있네	-9.79076
형제	-9.79129
▁역할	-9.79135
협	-9.79138
벽	-9.79173
무비	-9.79181
▁견자단	-9.79201
▁어려운	-9.79201
▁마이클	-9.79201
▁희생	-9.79211
▁뛰어난	-9.79231
자는	-9.79254
헤	-9.79345
중의	-9.79367
▁볼만함	-9.79432
▁유쾌하고	-9.79495
▁그렇다	-9.79515
▁식상	-9.79559
▁산으로	-9.79603
▁접	-9.7961
▁민	-9.79619
▁필	-9.79633
▁몰라도	-9.79655
▁높아	-9.79814
씨가	-9.79856
▁죽여	-9.79926
막장	-9.79956
▁가진	-9.80007
오브	-9.80024
.........	-9.80051
님이	-9.80055
▁합	-9.80062
▁없지만	-9.80109
팅	-9.80112
떄	-9.80118
댄	-9.80118
▁헐리웃	-9.80118
컷	-9.80118
스러웠	-9.8013
▁재밋다	-9.80137
▁생생	-9.80192
내용도	-9.80213
스의	-9.80219
▁마세요	-9.80232
▁자막	-9.80251
▁이쁜	-9.80272
▁아쉬움	-9.80312
있음	-9.80334
▁빠지	-9.80337
▁힘들다	-9.80374
▁볼만하다	-9.80407
▁의심	-9.80411
▁가득	-9.80447
▁여러	-9.8045
폐	-9.80467
M	-9.80492
같음	-9.80519
온다	-9.80622
주고싶	-9.80651
▁굳이	-9.807
▁탄탄한	-9.80728
스럽	-9.80789
긴한데	-9.80799
찾	-9.80818
겟다	-9.80875
무엇	-9.80888
▁발로	-9.80935
균	-9.81026
스럽고	-9.81032
▁시트콤	-9.81044
▁씁쓸	-9.81044
▁레전드	-9.81044
▁나머지	-9.81052
▁눈물을	-9.81167
▁연출도	-9.81207
▁올라	-9.81214
도아니고	-9.81215
▁좋습니다	-9.81224
▁할말이	-9.81246
세기	-9.81278
"""	-9.81308
▁광고	-9.81405
▁딱히	-9.81414
젠	-9.81585
▁안타깝다	-9.81623
할까	-9.81656
이유	-9.81707
▁어렸을	-9.81719
콜	-9.81964
솔	-9.81976
ᅩ	-9.81979
▁되었	-9.81994
▁긴장감도	-9.82003
▁사는	-9.82037
▁악당	-9.82089
웨	-9.82121
▁고생	-9.82145
고싶어	-9.82235
▁보길	-9.82243
▁안돼	-9.82284
나와서	-9.8229
▁독특	-9.82292
▁생각없이	-9.82316
명이	-9.82318
▁출연진	-9.82319
OOO	-9.82403
쓸	-9.82434
▁찍었	-9.82462
▁평이	-9.82522
표현	-9.82526
▁그려	-9.82527
▁투자	-9.82564
▁죽이	-9.82592
▁이런영화가	-9.82704
▁뒤로	-9.82763
▁둘다	-9.82913
▁즐거운	-9.82922
텔	-9.82922
톱	-9.82922
포인트	-9.82928
스러워	-9.82951
..........	-9.82984
감을	-9.82986
▁점수를	-9.8301
▁불쌍	-9.83017
▁많아	-9.83034
▁단연	-9.83078
▁생각한다	-9.8318
혼	-9.83218
▁받아	-9.8323
접	-9.83389
들만	-9.83397
버림	-9.83415
젤	-9.8343
한것	-9.83473
짜증	-9.83474
▁"""	-9.83565
리지	-9.83607
▁야한	-9.83608
극장	-9.83622
▁많았	-9.83649
▁앤	-9.83707
N	-9.83768
▁재밌을	-9.83774
딩	-9.8381
마리	-9.83845
붕	-9.83874
▁잔인한	-9.83875
▁무엇을	-9.83904
하지도	-9.83907
▁흐름	-9.83909
▁맘	-9.83993
▁끝나는	-9.84041
▁홍보	-9.84048
사람은	-9.84145
▁환상	-9.84157
▁넣	-9.84199
면에서	-9.84257
▁이유는	-9.8427
▁생각합니다	-9.84292
▁자극	-9.84365
답답	-9.8445
▁당시에	-9.84472
엄마	-9.84492
정이	-9.84514
느라	-9.8457
▁이루	-9.84574
▁밥	-9.84646
스타일	-9.84672
▁T	-9.84698
▁정서	-9.84752
빡	-9.84802
▁중반	-9.84803
릿	-9.84825
▁청소년	-9.84836
가지고	-9.84844
▁오글거리	-9.84848
▁의외로	-9.84856
▁상처	-9.84891
▁주인공의	-9.84909
▁학교에서	-9.84989
▁지나치	-9.85006
일이	-9.8501
▁미소	-9.85053
▁지루했다	-9.85067
기억	-9.85089
▁끄	-9.85149
▁되었다	-9.85199
원작	-9.85211
하더라	-9.85218
에서도	-9.85255
▁하루	-9.85268
▁여기서	-9.85274
있는데	-9.85344
▁무서워	-9.85416
워서	-9.85501
▁왜케	-9.85555
▁죄다	-9.85566
사이	-9.85586
되었	-9.85682
보자	-9.85701
▁발전	-9.85702
▁울었다	-9.85786
혈	-9.85807
▁짝퉁	-9.85807
▁007	-9.85809
▁시시	-9.85813
er	-9.85817
져서	-9.85831
▁북한	-9.85842
전쟁	-9.85852
▁직	-9.8593
집니다	-9.85958
▁핵	-9.85994
▁이쁘고	-9.86013
▁중요한	-9.86015
▁심장	-9.86201
만드는	-9.86276
▁울었	-9.86416
▁드라마는	-9.86439
캐릭터	-9.86471
흥	-9.86523
▁영화였어요	-9.86534
놨	-9.86546
▁돋	-9.86588
▁모든게	-9.86626
인가요	-9.86658
메이	-9.8671
관계	-9.86721
▁라는	-9.86723
▁어른	-9.86726
▁빌	-9.86733
▁많다	-9.86739
씹	-9.86787
▁무언가	-9.86789
노래	-9.86791
▁자신의	-9.86831
▁어머니	-9.86832
▁결말도	-9.86852
▁재미있었어요	-9.86878
st	-9.86899
사가	-9.86908
▁소재로	-9.86909
▁남녀	-9.86969
안되는	-9.87013
이며	-9.87126
연기도	-9.87147
시키는	-9.87152
▁아침	-9.87166
▁돌아가	-9.87175
▁이후로	-9.87179
고싶은	-9.87185
▁전문가	-9.87192
력이	-9.872
▁노답	-9.87214
▁제작비	-9.87262
▁쓸	-9.87293
▁보니까	-9.873
▁늘어	-9.87341
▁틀	-9.87357
현실	-9.87378
▁연속	-9.87379
닌	-9.87395
꿀잼	-9.87414
▁결말은	-9.87469
▁식	-9.87474
▁있네요	-9.87528
▁살아있	-9.87565
▁끊	-9.87599
▁어렵	-9.87725
▁있게	-9.87755
`	-9.87777
▁마이너스	-9.87777
▁쵝오	-9.87778
▁위대한	-9.87779
▁보고나면	-9.87787
▁영화에요	-9.87803
즘	-9.87811
매력	-9.87875
▁재미있었	-9.87922
▁멋있다	-9.87925
▁꽃	-9.87958
한다면	-9.87976
▁이때	-9.87997
▁우와	-9.88029
재밌음	-9.88032
그래	-9.88071
▁d	-9.88097
▁안타깝	-9.88157
▁건지	-9.88176
얘기	-9.88197
ᅮᅮᅮ	-9.88207
▁재미없어요	-9.88269
계의	-9.88274
▁풍	-9.88278
▁이따위	-9.88282
▁영화에서	-9.88335
▁좋지만	-9.88338
▁특이	-9.88399
끌	-9.88401
지지	-9.8841
▁영화냐	-9.88433
친다	-9.88451
▁과정	-9.88461
▁못했다	-9.88474
장난	-9.88486
▁가지	-9.88488
착	-9.88515
▁지금은	-9.88519
▁다만	-9.88535
▁멍청한	-9.88612
▁알겠	-9.88653
쌍	-9.88731
뛰	-9.88755
값	-9.88764
▁주성치	-9.88779
려면	-9.88862
학교	-9.88887
▁대표	-9.88919
▁뜨	-9.88966
계속	-9.88977
▁한국영화는	-9.88992
따라	-9.89038
▁문화	-9.89039
했네요	-9.89069
▁동생	-9.89078
일본	-9.89179
▁히	-9.89187
식으로	-9.89198
었고	-9.89221
▁나옴	-9.89233
▁진정	-9.89249
▁사기	-9.8933
▁한국인	-9.89407
하셨	-9.89463
▁망한	-9.89504
▁빼고	-9.89543
이해	-9.8956
빙	-9.89565
▁손발이	-9.89575
▁매력적이	-9.8959
▁왠	-9.89592
▁만들고	-9.89609
▁아나	-9.89689
감동적	-9.89689
옹	-9.89772
틱	-9.89781
멘	-9.89787
렷	-9.89787
탐	-9.89787
▁흥미로운	-9.89802
보지	-9.89814
▁발견	-9.8983
▁보아	-9.89836
▁웃기지도	-9.89837
▁나왔다	-9.8989
▁코난	-9.89916
▁표현한	-9.89993
▁몰입해서	-9.89996
ᄏᄏᄏᄏᄏᄏᄏᄏᄏᄏᄏᄏᄏ	-9.90022
▁m	-9.90034
▁전체	-9.90084
▁평범	-9.90153
▁내려	-9.90174
▁않게	-9.90216
▁무비	-9.90273
▁아마	-9.90287
▁싶네요	-9.9032
▁채	-9.90336
▁예쁘	-9.90343
▁개인	-9.90386
했나	-9.90399
아요	-9.90416
▁있어요	-9.90441
▁신선하고	-9.90527
▁인생의	-9.9061
▁웃김	-9.90631
▁빼고는	-9.90641
▁13	-9.90677
슬프	-9.90713
보는내내	-9.90737
▁반성	-9.9077
▁끝이	-9.90787
▁슈퍼	-9.9079
ᅵ	-9.90808
털	-9.90808
▁the	-9.90809
아쉽	-9.90815
▁웃음이	-9.90876
▁연결	-9.90887
▁아픔	-9.90894
▁달달	-9.90895
▁못해	-9.90911
▁볼게	-9.90947
로써	-9.90954
빼곤	-9.90971
▁명품	-9.91053
▁아쉽네요	-9.91115
▁느꼈	-9.9112
▁이쁘다	-9.91166
▁음악과	-9.91213
영화임	-9.91264
▁속에	-9.91312
▁보인다	-9.91353
▁우주	-9.91358
▁쩐다	-9.91383
나온다	-9.91402
▁맡	-9.91427
왔는데	-9.91433
점정도	-9.9154
더라면	-9.91565
▁받을	-9.91617
▁케이블	-9.91653
▁월	-9.9166
떠	-9.91711
▁크게	-9.91712
▁뻔하고	-9.91726
▁50	-9.91756
정신	-9.9176
갈수록	-9.91762
▁솔직	-9.91776
▁봤더니	-9.91839
녕	-9.91839
땡	-9.91839
▁쉽게	-9.91852
부족	-9.91853
▁흔한	-9.91869
▁꼽	-9.91909
▁엉망	-9.91955
대사	-9.91957
드러	-9.91997
?!	-9.92031
하려	-9.92053
겨울	-9.92111
▁현실적인	-9.92153
▁차이	-9.92155
▁국내	-9.92243
▁미모	-9.92269
되면	-9.92273
▁나오면	-9.92277
▁오바	-9.92448
▁루	-9.92452
▁말을	-9.92509
적은	-9.92523
▁단순한	-9.92547
▁영화인	-9.92558
▁우리가	-9.92639
했으나	-9.92757
▁김기덕	-9.92881
▁벌써	-9.92897
▁반개도	-9.92932
▁국민	-9.92934
했다는	-9.92939
하지마라	-9.9294
▁느낌을	-9.9295
▁좋았을	-9.93
▁남자가	-9.93067
▁시간을	-9.93087
▁옛	-9.9309
▁좀더	-9.93103
있나	-9.93109
▁떠나서	-9.93196
슬퍼	-9.93316
▁없는데	-9.93338
▁모르	-9.93363
▁집에서	-9.93439
쉽	-9.93458
▁끼	-9.93467
▁않지만	-9.9351
남는	-9.93543
▁현실적이	-9.93567
였어	-9.93613
▁쓰레기같은	-9.93693
쾌	-9.93777
해진다	-9.9386
로우	-9.939
ᄇ	-9.93919
▁와우	-9.93926
뚱	-9.93933
▁뭉클	-9.93933
줄알았	-9.93936
이런영화	-9.93978
해주세요	-9.93981
▁시각	-9.94055
▁사람의	-9.94066
뭔	-9.94112
▁끌어	-9.94128
▁무협	-9.94184
▁떨어지	-9.94234
▁가서	-9.94249
▁나쁘지	-9.94252
▁보았다	-9.94278
▁주말	-9.94321
▁관한	-9.94353
봐야지	-9.94404
장면이	-9.94405
▁되지	-9.94445
▁비슷	-9.94474
대는	-9.94477
▁이해할	-9.94531
▁진부하고	-9.94532
냈	-9.94534
만큼은	-9.94639
it	-9.94687
▁볼수있	-9.94849
▁[	-9.94857
수있는	-9.94928
었어	-9.94973
▁울고	-9.94989
떼	-9.94997
뽕	-9.94997
컨	-9.94997
팀	-9.94997
▁연예인	-9.94997
▁최강	-9.95078
▁역대급	-9.95092
▁어휴	-9.95107
▁무척	-9.95168
끝까지	-9.95237
뻔한	-9.95306
셔서	-9.95314
▁할말	-9.95448
▁배우들도	-9.95502
하신	-9.95522
사회	-9.95529
까지는	-9.95532
▁순수	-9.95541
▁영화인듯	-9.9555
▁채널	-9.95616
▁철	-9.95626
▁있으면	-9.95627
▁한참	-9.95673
▁질리지	-9.95805
▁줌	-9.95809
▁안보고	-9.95819
▁꿈을	-9.95946
▁잊을	-9.9595
하는건	-9.95956
▁지루하게	-9.95963
컬	-9.96069
▁러닝타임	-9.96072
퀴	-9.96072
▁낳	-9.96075
▁새롭	-9.96094
▁에휴	-9.96127
넣	-9.96136
▁기다리	-9.96149
▁이래	-9.96167
▁시도	-9.96169
ᄏᄏᄏᄏᄏᄏᄏᄏᄏᄏ	-9.96211
▁조합	-9.96227
▁멍청	-9.96261
와는	-9.96306
▁그럼	-9.96584
▁삶에	-9.96698
지도않고	-9.96936
▁최대	-9.96989
이자	-9.96996
거라	-9.97017
▁아줌마	-9.97065
▁포르노	-9.97159
▁묘사	-9.97172
▁잭	-9.9719
▁무섭지도	-9.97206
▁맨날	-9.97211
▁상업	-9.97251
몰입	-9.97257
▁있습니다	-9.97349
▁뜻	-9.97359
줬다	-9.97425
▁못한다	-9.97433
연기력	-9.97446
엇다	-9.97449
▁신파	-9.97472
치곤	-9.97495
▁풀	-9.97519
▁공부	-9.9755
▁진지	-9.97666
▁인간이	-9.97691
자의	-9.9772
▁샤	-9.97847
▁콩	-9.97894
만의	-9.97924
▁올려	-9.97954
▁f	-9.98048
택	-9.98181
▁원작의	-9.9825
▁놈	-9.98266
ing	-9.98282
▁여행	-9.98287
▁민망	-9.98302
▁하나하나	-9.98358
▁인도	-9.98389
지를	-9.98391
몽	-9.98401
▁보지마	-9.98416
ᄌ	-9.98416
나가는	-9.98418
I	-9.9843
▁의문	-9.98466
▁지구	-9.98496
▁남겨	-9.98526
▁영어	-9.98545
▁부족하다	-9.98546
▁시청	-9.98648
에대한	-9.98672
."	-9.98672
▁적당	-9.98778
수없는	-9.9879
아니다	-9.98811
시작	-9.98816
▁아이가	-9.98929
이라서	-9.98947
버리는	-9.98982
▁;;	-9.99016
우리	-9.99034
▁힘이	-9.99054
않다	-9.99135
▁안나	-9.9917
편의	-9.99233
텐	-9.9927
▁없지	-9.99306
▁철학	-9.99347
낀	-9.9936
▁흥	-9.99368
▁카리스마	-9.99369
롤	-9.99369
▁크리스마스	-9.99369
▁더러운	-9.9937
▁불구하고	-9.9937
▁더불어	-9.99374
▁검색	-9.99383
▁일품	-9.99469
▁어린이	-9.99496
▁사랑이야기	-9.99517
쥐	-9.99582
밥	-9.99589
▁박수를	-9.99602
▁모르겠지만	-9.99607
시즌	-9.9964
▁제로	-9.99694
▁논	-9.99696
▁추억이	-9.99783
▁한데	-9.99799
▁인간들	-9.9981
▁드립니다	-9.99827
하기만	-9.99847
님들	-9.99875
▁하네요	-9.99902
▁무시	-9.99909
▁조연	-9.99909
ᄏᄏᄏᄏᄏᄏᄏ	-9.99912
▁잊지	-9.99998
▁니들	-10.0002
▁훈훈한	-10.0004
▁잔	-10.0004
▁나오지	-10.001
▁인상적이	-10.0012
렉	-10.0015
기에는	-10.0016
▁아역	-10.002
▁영화라는	-10.002
▁진리	-10.0025
▁의리	-10.0026
했었는데	-10.0034
칙	-10.0049
▁싸이코	-10.0049
공감	-10.005
아쉬	-10.005
▁복잡	-10.0052
▁지켜	-10.0057
뭔가	-10.0057
어라	-10.0059
이었음	-10.006
▁그걸	-10.0066
▁설마	-10.0067
지말고	-10.0069
▁최소	-10.0075
▁없었던	-10.0076
봅니다	-10.0076
자체가	-10.0079
▁혼	-10.0082
▁누구나	-10.0085
봐요	-10.0087
다는게	-10.009
▁감동적이다	-10.0098
세상	-10.0102
▁한심	-10.0106
▁작가가	-10.011
▁억지스럽	-10.0113
▁명작입니다	-10.0116
버릴	-10.0117
엔딩	-10.0121
편에	-10.0122
▁빵점	-10.0125
제발	-10.0129
해진	-10.0131
▁친구들	-10.0132
기위해	-10.0135
▁비디오로	-10.0139
▁무서웠	-10.0141
▁잊을수	-10.0141
으려	-10.0152
좋아하는	-10.0158
▁초등학생	-10.0163
례	-10.0163
▁아까울	-10.0163
▁젠장	-10.0163
▁좋았으나	-10.0165
▁필름	-10.0166
▁크리스	-10.0166
▁좋겠어요	-10.0168
▁인물들	-10.0169
▁한번쯤	-10.0172
내고	-10.0177
그리	-10.0178
▁의미를	-10.018
똥	-10.0187
해야지	-10.0188
했었	-10.0192
▁끝났	-10.02
씬은	-10.0205
본영화	-10.0211
▁못할	-10.0218
▁중요	-10.0219
야한다	-10.0221
▁유명한	-10.0228
이였다	-10.0231
▁지루하기	-10.0232
중에서	-10.0233
▁졸리	-10.0245
▁시청자	-10.0248
▁만든영화	-10.0254
년만에	-10.0263
▁싶지	-10.0264
▁착	-10.0266
▁한명	-10.027
점줌	-10.0272
랫	-10.0278
▁기독교	-10.0278
넹	-10.0278
둔	-10.0278
섯	-10.0278
탓	-10.0278
▁판	-10.028
▁방법	-10.0282
▁레알	-10.0284
▁찌질	-10.0285
▁변태	-10.0285
▁양심	-10.0289
라이언	-10.0296
배우가	-10.0298
▁주기	-10.0298
▁대사가	-10.03
▁쓰레기다	-10.0307
▁기대했는데	-10.0314
돋	-10.0315
빌	-10.0316
듣	-10.0316
▁가면	-10.0317
▁필요한	-10.0324
▁왜이래	-10.0332
씨의	-10.0332
끼리	-10.0335
▁장면에서	-10.0344
쟁이	-10.0349
▁들었	-10.0352
▁점수가	-10.0352
▁이해하기	-10.0352
▁작품을	-10.0353
▁이유를	-10.0356
▁좋아해서	-10.0358
울리	-10.036
▁보시	-10.0363
▁찌	-10.0365
하던데	-10.037
는것도	-10.0371
지않고	-10.0372
시대에	-10.0376
할수있	-10.0376
♥♥♥	-10.038
▁유명	-10.0384
▁좋게	-10.0386
흡	-10.0392
▁시리즈중	-10.0393
▁시간가는줄	-10.0394
▁패러디	-10.0394
▁로봇	-10.0395
냄새	-10.0395
▁보기에	-10.0399
있었	-10.0401
▁ᄋᄋ	-10.0403
공포영화	-10.0415
지네요	-10.0416
▁극치	-10.0421
▁멍	-10.0422
▁뭐라	-10.0427
한국	-10.0428
특	-10.0429
샤	-10.0438
었네	-10.0442
▁감동적	-10.0445
▁ᄏᄏᄏᄏᄏᄏ	-10.0448
겠네요	-10.0449
▁싶었	-10.0455
▁낮다	-10.0456
▁보자	-10.0458
▁거지	-10.0458
그래서	-10.0461
▁틀어	-10.0469
막히	-10.047
▁워	-10.0473
▁홍콩영화	-10.0474
내내	-10.0483
▁안맞	-10.0483
없어서	-10.0486
편을	-10.049
티비	-10.049
▁a	-10.0496
▁평점보고	-10.0498
감독님	-10.0499
것같	-10.0504
▁꽝	-10.0507
오래	-10.0511
콤	-10.0511
▁퇴	-10.0512
렁	-10.0512
▁좋아할	-10.0516
▁즐기	-10.0517
▁가능	-10.0517
머니	-10.052
▁고통	-10.0523
▁장면들	-10.0525
▁있구나	-10.0527
▁재미와	-10.0527
앞	-10.0527
하시는	-10.0532
..;;	-10.0542
쓰레기영화	-10.0547
시길	-10.0548
▁필요없	-10.0551
▁자살	-10.0554
밤	-10.0561
▁망치	-10.0568
▁잼있다	-10.0569
▁오랜만	-10.0585
사는	-10.0586
편도	-10.0587
저리	-10.0589
나올때	-10.0594
▁되고	-10.0598
▁십	-10.0603
점이다	-10.0604
▁본거	-10.0606
렬	-10.061
ar	-10.0613
▁사랑의	-10.0615
랄까	-10.062
▁어릴	-10.0621
겠음	-10.0622
닮	-10.0626
괜	-10.0629
옷	-10.0631
▁외계인	-10.0631
▁기다려	-10.0633
▁빈약	-10.0633
▁어린시절	-10.0633
▁느껴진다	-10.0633
겁니다	-10.0636
▁응원	-10.0637
▁같아서	-10.0642
▁존경	-10.0643
▁18	-10.0646
▁간다	-10.0647
▁할까	-10.0648
는거야	-10.0655
▁사랑은	-10.0664
▁작은	-10.067
▁가슴에	-10.0671
▁작품이다	-10.0673
▁비극	-10.0676
▁살려	-10.0682
허접	-10.0685
차라리	-10.0688
얼굴	-10.0689
▁가져	-10.0689
~!!!	-10.0693
좋앗	-10.0695
주면	-10.0706
en	-10.0709
▁헤어	-10.0712
▁말하는	-10.0713
의미	-10.0716
하기엔	-10.0719
억지	-10.0728
▁빠진	-10.0731
뽑	-10.0746
K	-10.0751
▁폴	-10.0755
▁죽는줄	-10.0755
▁세월	-10.0759
▁최고입니다	-10.0766
▁전쟁영화	-10.0772
▁형님	-10.078
▁이럴	-10.0788
새끼들	-10.079
▁낮네	-10.079
▁착한	-10.0792
▁넘치는	-10.0798
▁깔끔	-10.0802
▁괜찮은데	-10.0804
잇는	-10.0805
▁연기력도	-10.0806
짜증나	-10.0813
맥	-10.0814
스크	-10.0835
겠어요	-10.084
▁덕분에	-10.0844
잖	-10.0848
했을까	-10.0854
▁O	-10.0854
이걸	-10.0865
▁뿐이다	-10.0869
▁개봉한	-10.0869
엠	-10.0873
셀	-10.0873
쭉	-10.0873
▁에피소드	-10.0873
▁왠만하면	-10.0873
▁색다른	-10.0874
▁보지말	-10.0874
▁교육	-10.0875
▁감흥	-10.0876
▁겨우	-10.0876
▁개뿔	-10.0876
있냐	-10.088
▁최초	-10.0881
▁전투	-10.0882
랜드	-10.089
같지	-10.0898
▁그녀의	-10.0911
▁눈에	-10.0912
▁개성	-10.0913
▁쇼	-10.0915
살아	-10.0921
▁괜찮다	-10.0926
것인가	-10.0933
▁무리	-10.0935
보구	-10.0936
▁부르	-10.094
년도에	-10.0941
▁전설의	-10.0953
▁긴장감이	-10.0955
▁보려고	-10.0956
▁뇌	-10.0962
기로	-10.0962
▁한마디	-10.0964
스키	-10.0968
▁용기	-10.0971
▁자식	-10.0972
부작	-10.0972
▁하는지	-10.0973
▁못하다	-10.0974
▁199	-10.0979
속의	-10.0983
룡	-10.0983
같아	-10.0985
▁척	-10.0985
▁갔	-10.0993
꾼	-10.0996
ᅥ	-10.0997
깍	-10.0997
켓	-10.0997
▁떨어진다	-10.0997
▁고양이	-10.0997
무서움	-10.0998
▁풍경	-10.1002
▁갈등	-10.1004
▁학교	-10.1007
▁낚시	-10.1025
▁명화	-10.1028
▁감히	-10.103
▁피해자	-10.1034
▁한심한	-10.1051
▁생각함	-10.1056
대단	-10.106
▁미쳤	-10.1063
요즘	-10.1066
▁야구	-10.1069
▁재밌다고	-10.107
꼴	-10.1071
드립니다	-10.1075
▁:	-10.1078
▁그렇다고	-10.1078
▁그렇지	-10.1084
기법	-10.1098
닐	-10.1104
▁지나도	-10.1105
▁봤네	-10.1105
거면	-10.1107
하는영화	-10.1108
▁단지	-10.1111
였고	-10.1116
▁엄	-10.1117
▁중에서	-10.1117
륜	-10.1119
▁블랙	-10.1121
멸	-10.1122
삐	-10.1122
긋	-10.1122
▁알려	-10.1124
▁보여준다	-10.1124
빨리	-10.1124
▁극장가서	-10.1124
▁특별한	-10.1127
▁전개도	-10.1132
간의	-10.1133
▁그당시	-10.1134
▁개막장	-10.1134
▁보긴	-10.1136
▁기술	-10.1137
▁외모	-10.1138
▁D	-10.1142
▁들었다	-10.1144
쓰고	-10.1145
▁좋았지만	-10.1146
▁기대이상	-10.1147
▁잼나게	-10.1153
▁보통	-10.1156
▁부모	-10.1157
▁허세	-10.1157
▁조카	-10.1161
▁못함	-10.1166
▁탑	-10.117
▁싶은데	-10.1173
▁감동의	-10.1173
▁쿠	-10.1176
▁때문	-10.1176
냈다	-10.1176
▁어른들	-10.1177
으로써	-10.118
200	-10.1182
굿굿	-10.1184
▁행복한	-10.1184
▁생각하는	-10.1192
▁소름이	-10.1195
자나	-10.1198
하기도	-10.1199
F	-10.1201
맹	-10.1202
줘서	-10.1208
겠습니다	-10.1209
▁본영화	-10.1225
같네	-10.1227
▁뛰어	-10.1233
마지막에	-10.1234
때매	-10.1235
▁빠져들	-10.124
재미없음	-10.1243
▁재미없게	-10.1244
춰	-10.1246
뮤	-10.1248
숭	-10.1248
▁봤을때	-10.1248
▁무엇인지	-10.1249
▁핵노잼	-10.125
▁몇몇	-10.125
▁아까웠다	-10.1251
히어로	-10.1251
▁참신한	-10.1252
▁낚였다	-10.1255
▁다룬	-10.1256
▁ᄏᄏᄏᄏᄏᄏᄏ	-10.1257
▁일이	-10.1257
▁밤	-10.1257
기까지	-10.1258
▁보았습니다	-10.1259
▁여름	-10.1262
지루함	-10.1264
▁악마	-10.1273
!!!!!!!!!!!!!!!!	-10.1274
없는영화	-10.1275
▁완전히	-10.1275
▁해석	-10.1276
▁재미있습니다	-10.1276
▁훌륭하다	-10.1276
▁만들면	-10.1288
▁잘봤어요	-10.129
▁웃기다	-10.1292
▁견	-10.1294
▁맹	-10.1295
절대	-10.1297
인건	-10.1304
끄	-10.1311
▁가치가	-10.1313
▁감정을	-10.1317
▁재미잇	-10.1319
▁들어가	-10.1326
영화인데	-10.1327
▁ᄏᄏᄏᄏᄏᄏᄏᄏ	-10.1333
▁조화	-10.1334
보고싶다	-10.1336
▁씬	-10.1337
▁도전	-10.134
▁승	-10.1344
▁누군가	-10.1361
배경	-10.1362
▁영원히	-10.138
까요	-10.1385
▁충격적이	-10.1386
▁이미지	-10.1397
▁이래서	-10.1399
▁잊	-10.1402
▁찬	-10.1404
올리	-10.1411
감독의	-10.1414
▁좋아하는데	-10.142
ᄋᄋ	-10.142
▁아이돌	-10.142
▁모르게	-10.142
▁연기자들	-10.1421
잡고	-10.1422
▁생각하고	-10.1424
▁오락	-10.1433
적이다	-10.1437
었네요	-10.1437
같고	-10.1448
잔잔	-10.1449
럴	-10.145
▁그거	-10.1463
▁노래도	-10.1463
덜	-10.1471
큰	-10.1472
만듬	-10.1479
ᄏᄏᄏᄏᄏᄏᄏᄏᄏᄏᄏᄏ	-10.1479
뭐야	-10.1481
▁말하고	-10.1481
▁없어요	-10.1482
건만	-10.1489
▁따뜻	-10.1495
▁애기	-10.1497
쿨	-10.1506
H	-10.1506
▁스티븐	-10.1506
핑	-10.1506
▁스트레스	-10.1506
▁이제서야	-10.1507
▁원작이	-10.1507
▁니콜	-10.1508
▁확실	-10.1516
하고싶은	-10.1516
▁반복	-10.1517
▁만남	-10.1525
▁만들다니	-10.1526
▁챙겨	-10.153
▁야동	-10.1531
▁색감	-10.1536
▁훈훈	-10.1538
▁장르가	-10.1539
▁그럴	-10.1545
부분이	-10.1553
▁비하면	-10.1555
▁생각나서	-10.1561
▁답답한	-10.1563
▁이런영화를	-10.1564
▁웃고	-10.1564
바뀌	-10.1572
▁암튼	-10.1575
▁이것이	-10.1575
▁결론	-10.1585
▁대화	-10.1591
으로서	-10.1597
켜	-10.16
▁먹고	-10.1605
▁다르다	-10.1614
더빙	-10.1617
▁있어야	-10.1631
오늘	-10.1633
섹	-10.1637
냉	-10.1638
쥬	-10.1638
▁읽어	-10.1638
빅	-10.1638
뽀	-10.1638
칸	-10.1638
핀	-10.1638
▁2014	-10.1638
▁잔뜩	-10.1638
▁모험	-10.1643
▁그저그런	-10.1643
as	-10.1649
▁동안	-10.1649
▁전율	-10.1649
▁살고	-10.165
▁색	-10.1654
▁빼면	-10.1662
▁낮지	-10.1668
▁남네요	-10.1669
▁충	-10.1677
설정	-10.1685
▁보지마라	-10.169
▁공포물	-10.1693
▁출연한	-10.1699
▁재미없었다	-10.1702
▁모를	-10.1702
▁에로영화	-10.1716
▁나타	-10.1719
만드네	-10.1725
▁어이	-10.1731
어여	-10.1732
▁하면서	-10.1732
▁많고	-10.1737
빛	-10.1744
꽃	-10.1747
빠지	-10.1752
▁최근에	-10.1758
▁웬	-10.1758
▁가족영화	-10.176
한다고	-10.177
칭	-10.1771
U	-10.1771
낯	-10.1771
▁안타까운	-10.1771
벅	-10.1771
▁소중한	-10.1772
▁스스로	-10.1772
▁잔혹	-10.1772
되나	-10.1773
옴	-10.1775
▁감각	-10.1779
명의	-10.1779
는구나	-10.1786
▁열연	-10.1788
▁매력적	-10.1788
▁오래된	-10.1789
년작	-10.1789
▁방영	-10.1791
▁떨	-10.1792
▁수도	-10.1793
▁보여줬	-10.1803
▁않을까	-10.1806
▁관객들	-10.1811
했지	-10.1813
▁엉성하고	-10.1814
▁21	-10.1815
▁죽이는	-10.1818
▁돼	-10.1818
좋음	-10.1821
▁어쩔수	-10.1823
▁정도의	-10.1829
현실을	-10.183
▁돌리	-10.1831
▁됨	-10.1836
그만	-10.1837
▁본다면	-10.1843
▁심하게	-10.1844
▁정말이지	-10.1854
▁진부하	-10.1856
▁배우를	-10.1863
▁관객을	-10.1863
하겠	-10.188
붙	-10.1888
비디오	-10.1889
▁모든것	-10.1891
▁아쉬웠	-10.1894
▁남편	-10.1896
더라도	-10.1901
받는	-10.1903
헌	-10.1903
▁체	-10.1905
▁DVD	-10.1906
뜬	-10.1906
▁후속작	-10.1906
▁아이디어	-10.1906
▁소소한	-10.1907
▁뻔하	-10.1907
▁11	-10.1912
야할	-10.1916
안됨	-10.1926
▁여운을	-10.1927
▁감명	-10.1931
문화	-10.1934
▁지났	-10.1935
동생	-10.1937
▁짜증난다	-10.1937
▁주기도	-10.1939
▁집중해서	-10.194
▁신경	-10.194
▁막판에	-10.1943
▁깎	-10.1943
본사람	-10.1947
▁아픈	-10.1949
▁선생님	-10.195
▁개연성이	-10.195
▁앞으로도	-10.1953
99	-10.1961
▁예쁘고	-10.1962
▁코미디영화	-10.1963
요소	-10.1964
출연	-10.1967
▁실제로	-10.1969
▁우리의	-10.1986
le	-10.1988
▁노래가	-10.199
▁줄수	-10.1992
▁안볼	-10.1992
▁내가본	-10.1993
▁보내	-10.1995
▁됬	-10.1999
▁단편	-10.201
됐다	-10.2015
▁낮아	-10.2028
긴장감	-10.2032
거리는	-10.2033
닿	-10.2038
껴	-10.2041
아무	-10.2041
관람	-10.2042
▁여러분	-10.2043
▁로버트	-10.2043
▁봤을까	-10.2043
▁주윤발	-10.2043
▁살다살다	-10.2043
▁제임스	-10.2044
▁캬	-10.2044
▁직접	-10.2044
▁잠깐	-10.2044
납니다	-10.2045
▁sf	-10.2046
후회	-10.2049
▁일어나	-10.205
점대는	-10.2054
▁뛰어나	-10.2056
블루	-10.2058
▁따로	-10.2059
자를	-10.2059
▁무술	-10.2062
▁아니야	-10.2064
스토리도	-10.2064
▁있다니	-10.2066
30	-10.2066
영화입니다	-10.2066
▁살면서	-10.2068
▁분위기가	-10.2072
bb	-10.2076
▁내면	-10.2083
▁일반	-10.2084
▁많은걸	-10.2091
▁여전	-10.2093
때부터	-10.2097
▁한편의	-10.2102
점이상	-10.2111
-_-;	-10.2112
높은	-10.2118
▁못보겠	-10.2127
▁식상한	-10.2128
긴하지만	-10.2131
▁밋밋	-10.2133
▁썼	-10.2134
▁영상이	-10.2141
▁본방사수	-10.2145
▁ᄋ	-10.215
▁영화보면서	-10.2152
하다가	-10.2155
▁가슴을	-10.2166
배우들의	-10.2167
트리	-10.2167
▁쩝	-10.2168
흠	-10.2176
아저씨	-10.2176
▁수준의	-10.2177
▁잇	-10.2179
되었다	-10.2179
▁다운받아	-10.2182
▁특수효과	-10.2182
앵	-10.2182
▁동성애	-10.2182
▁깜짝	-10.2182
거같은데	-10.2184
▁여러가지	-10.2184
졸작	-10.2189
▁억지스러운	-10.2189
보지마셈	-10.219
▁바꾸	-10.219
▁술	-10.2191
▁만들수	-10.2191
▁구성이	-10.2191
▁만들었는지	-10.2192
▁죽은	-10.2196
▁해결	-10.22
보니까	-10.2204
▁전설	-10.2205
덕에	-10.2209
조금	-10.221
▁모두가	-10.2212
얘	-10.2213
것같아요	-10.2227
모두	-10.2228
감정	-10.2228
▁망친	-10.2246
▁최고였다	-10.2252
▁맞아	-10.2253
0%	-10.2256
▁멋지	-10.2258
했더니	-10.2266
이즈	-10.2268
주연	-10.2271
아빠	-10.2278
생각이	-10.2285
스포	-10.2285
개그	-10.2286
럼	-10.2292
여주	-10.2299
▁모르겠고	-10.2308
▁영화보는	-10.2308
것같은	-10.2309
▁얼마	-10.2309
인데도	-10.231
▁재난영화	-10.231
▁하는거	-10.2317
아까웠	-10.2321
몸	-10.2323
롯	-10.2323
▁즐거웠	-10.2323
닉	-10.2323
룩	-10.2323
싼	-10.2323
▁교과서	-10.2323
▁남자들	-10.2325
▁경험	-10.2326
▁타임	-10.2326
관객	-10.2329
▁볼수있는	-10.233
▁게다가	-10.2335
좋았다	-10.2336
▁매력을	-10.2338
▁주변	-10.234
▁강력	-10.2341
애들이	-10.2343
es	-10.2345
▁이딴걸	-10.2345
▁세상을	-10.2346
▁부실	-10.2347
▁케이블에서	-10.235
▁탄탄	-10.2351
▁먼가	-10.2351
▁위로	-10.2351
▁재미도없고	-10.2353
▁궁금하다	-10.236
보이는	-10.2362
▁스릴있	-10.2368
▁캐릭터가	-10.2369
♥♥♥♥	-10.2374
모든	-10.2374
특별	-10.2378
레스	-10.2379
▁요리	-10.2383
게임	-10.2385
▁신선하	-10.2387
▁보며	-10.2388
배우들이	-10.2394
려다가	-10.2401
▁초딩때	-10.2406
▁불쌍하다	-10.241
▁현실이	-10.2416
▁검	-10.2424
12	-10.2424
al	-10.2426
▁엘	-10.243
▁끈	-10.2436
▁쥐	-10.2439
▁생각하면	-10.244
뻐	-10.2441
씬이	-10.2451
▁소장	-10.2461
딴	-10.2461
략	-10.2465
깜	-10.2466
랭	-10.2466
▁거짓말	-10.2466
▁인내심	-10.2466
▁아류작	-10.2466
▁제이슨	-10.2466
▁나은	-10.2466
▁효과	-10.247
재밌어	-10.2471
찡	-10.2472
촌	-10.2472
같은영화	-10.2476
▁잠이	-10.2476
▁로코	-10.2476
▁남자의	-10.2478
▁단어	-10.2479
▁담배	-10.2481
▁별로임	-10.2482
▁잼나	-10.2484
▁아까운영화	-10.2486
▁우리는	-10.2486
▁연출과	-10.2488
하진	-10.2491
▁잼잇	-10.2492
만하다	-10.2499
▁반전은	-10.2502
장애	-10.2515
▁마지막장면	-10.2516
버전	-10.2521
▁풍자	-10.2522
▁작품은	-10.2522
▁싶을	-10.2532
▁침	-10.2532
▁있었지만	-10.2533
▁어디에	-10.2536
쟁	-10.2542
믿	-10.2556
▁형편없	-10.2558
▁안맞는	-10.2558
바닥	-10.2563
▁않네요	-10.2566
▁응	-10.2576
▁엔딩이	-10.2589
▁커플	-10.2589
▁볼만했	-10.2591
나오고	-10.2597
받아서	-10.2601
갔는데	-10.2605
▁개연성도	-10.2607
찮	-10.261
엑	-10.2611
▁dvd	-10.2611
▁블록버스터	-10.2611
▁해리포터	-10.2611
▁심형래	-10.2611
▁태어나서	-10.2611
▁디테일	-10.2611
▁내생에	-10.2612
▁줬	-10.2612
▁애들은	-10.2614
개념	-10.2615
▁영혼	-10.2615
▁할머니	-10.2617
상태	-10.2618
▁조작	-10.2618
▁언제봐도	-10.2618
▁높게	-10.2623
헐	-10.2624
▁집에	-10.2625
브라	-10.2625
것만으로도	-10.2626
~~~~~~	-10.2627
싸움	-10.2628
▁알겠는데	-10.2628
추억	-10.2629
포스터	-10.2629
▁결정	-10.263
▁라이	-10.2632
▁나에겐	-10.2633
장르	-10.2633
▁좀비영화	-10.2638
초반	-10.264
▁영화인지	-10.2641
분은	-10.2641
▁모르겠음	-10.2643
▁기억나는	-10.2643
▁포스터가	-10.2648
▁아쉽지만	-10.2649
▁보여주고	-10.2661
▁내용인지	-10.2661
겼	-10.2665
▁인상적	-10.2666
▁부터	-10.2669
▁남은	-10.2669
▁그립다	-10.2675
문제	-10.2678
번은	-10.2682
치고는	-10.2683
▁만든거	-10.2685
놈이	-10.2685
▁안습	-10.2689
여행	-10.2692
▁대부분	-10.2692
▁제외	-10.2693
다큐	-10.2695
▁최고로	-10.2697
▁에이	-10.2699
▁이런영화는	-10.2703
보시길	-10.2704
▁있던	-10.271
▁이런건	-10.2717
▁포스	-10.2719
거같아요	-10.272
▁이상하게	-10.2722
▁진수	-10.2725
기전에	-10.2733
임에도	-10.2734
▁봤어	-10.2741
▁대중	-10.2746
평가	-10.2748
▁넌	-10.2752
몇	-10.2752
▁재미로	-10.2753
액	-10.2757
▁다시는	-10.2757
곰	-10.2758
펙	-10.2758
▁가벼운	-10.2758
▁제니퍼	-10.2758
▁짜임새	-10.2758
재미있게	-10.2758
▁스크린	-10.2758
있습니다	-10.2758
▁실력	-10.2758
▁W	-10.2759
▁이뻐서	-10.2759
▁어설프고	-10.2759
▁말도안되는	-10.276
▁1,2	-10.276
▁어쩜	-10.2762
▁데리고	-10.2765
▁안본	-10.2768
▁원작에	-10.2771
굳	-10.2771
▁깨닫게	-10.2775
▁재밌던데	-10.2775
화이팅	-10.2778
▁과장	-10.2779
걍	-10.2779
▁잘만들	-10.278
ᄏᄏᄏᄏᄏᄏ	-10.2781
였으면	-10.2781
맞추	-10.2782
이뻐	-10.2782
▁봐야하는	-10.2784
▁낙	-10.2785
▁사진	-10.2789
▁조절	-10.2789
▁동심	-10.2789
쓰는	-10.2791
▁대해서	-10.2793
▁선물	-10.2796
없었	-10.2797
하지마	-10.2797
▁재밌지	-10.2797
하군	-10.2805
▁p	-10.2815
▁뜬금없	-10.2826
▁액션씬	-10.2829
▁약간의	-10.2831
상실	-10.285
▁열받	-10.2853
어이없	-10.2866
▁^	-10.2877
▁똑같은	-10.2878
연기는	-10.288
▁평론가들	-10.2881
▁오락영화	-10.289
▁기자	-10.2891
▁자주	-10.2901
ᄎ	-10.2907
▁you	-10.2907
z	-10.2907
▁러시아	-10.2907
▁울컥	-10.2908
▁탄생	-10.2908
▁으리	-10.2911
▁결코	-10.2912
▁감동은	-10.2912
▁남자주인공	-10.2916
끄러	-10.2916
▁나름대로	-10.2921
▁비밀	-10.2922
▁욕망	-10.293
▁죽이고	-10.2931
▁따뜻하고	-10.2931
▁봐도봐도	-10.2932
앤	-10.2934
▁잼있어요	-10.2934
▁찾아보	-10.2934
쳐서	-10.2934
▁개노잼	-10.2935
라곤	-10.2936
커플	-10.2938
갑니다	-10.2939
같아서	-10.2943
셈	-10.2943
▁ᄍᄍᄍ	-10.295
좋은영화	-10.2953
▁톰	-10.2955
▁궁	-10.2956
▁클레멘타인	-10.2965
▁불러	-10.2967
▁제목만	-10.2968
▁몇년	-10.2969
▁비판	-10.2969
모르겟	-10.2983
▁이야기는	-10.2985
본영화중	-10.2994
으니까	-10.2996
들에	-10.2997
사람들은	-10.3002
▁아이들과	-10.3004
있어서	-10.3009
여운이	-10.3014
보셈	-10.3014
햇다	-10.3024
기도하고	-10.3029
려요	-10.3029
지말자	-10.3031
▁시리즈는	-10.3032
▁명작을	-10.3034
른다	-10.3036
맘	-10.3038
▁아깝고	-10.3038
▁최고임	-10.3043
▁예쁘다	-10.3044
콘	-10.305
▁오빠	-10.3051
받아	-10.3057
씁	-10.3059
▁오랫만에	-10.3059
▁왤케	-10.3059
닷	-10.3059
▁배트맨	-10.3059
▁숨겨진	-10.3059
▁장국영	-10.3059
▁엿	-10.306
▁유일한	-10.306
▁해라	-10.306
▁재개봉	-10.3063
이름	-10.3063
▁여자친구	-10.3067
▁흔들	-10.307
▁옥	-10.3071
▁또다른	-10.3072
어린	-10.3072
▁연극	-10.3078
▁영상과	-10.308
▁울리는	-10.3084
▁하나의	-10.309
▁길게	-10.309
논	-10.3092
왓	-10.3092
▁입장	-10.3095
▁새벽에	-10.3102
구석	-10.3102
할수가	-10.311
▁놀랍다	-10.3112
▁형사	-10.3113
▁귀여워	-10.3115
▁망했	-10.312
▁매미	-10.3121
▁지겹다	-10.3121
큐	-10.3123
▁속에서	-10.3125
받은	-10.3127
▁녹	-10.3127
후에	-10.3128
열자	-10.3134
▁재미없어서	-10.3136
▁조선	-10.314
재밌는	-10.3141
▁수작이다	-10.3141
▁한국에서	-10.3151
려나	-10.3155
▁새로	-10.3156
▁뭘까	-10.3165
▁느꼈다	-10.3166
▁거장	-10.317
19	-10.3172
▁군	-10.3175
었지	-10.3176
▁아름다웠	-10.3178
하길	-10.318
▁어색하	-10.318
▁두고	-10.319
검	-10.3191
^^*	-10.3195
자리	-10.3196
▁만한	-10.3198
주기	-10.3198
빠져	-10.321
▁본게	-10.3211
딘	-10.3213
램	-10.3213
싹	-10.3213
층	-10.3213
쪼	-10.3213
▁사운드	-10.3213
엇는데	-10.3213
▁다양한	-10.3213
▁충실	-10.3215
▁돋보이는	-10.3216
▁시청률이	-10.3216
사람들이	-10.3216
▁좋겠	-10.3219
▁믿고보는	-10.3221
▁적당히	-10.3222
▁꼬마	-10.3232
▁하나같이	-10.3234
때문	-10.3236
▁최고봉	-10.3237
지않아	-10.3239
할만한	-10.3241
▁선동	-10.3243
삶	-10.3248
보는게	-10.3248
뇌	-10.325
▁느껴졌	-10.3255
어떻게	-10.3255
솔직히	-10.3255
▁괜찮음	-10.3256
▁잔인	-10.3256
보소	-10.3257
적이지	-10.3258
▁모든걸	-10.3259
▁않아서	-10.3261
▁국가	-10.3261
웃김	-10.3261
▁다시보니	-10.3263
▁잡아	-10.3264
▁기준	-10.3283
이후	-10.3292
▁뭐하나	-10.3296
▁정의	-10.3299
멜로	-10.3304
▁기회	-10.3304
▁잘하고	-10.3307
▁헬	-10.3314
점부터	-10.3319
스럽게	-10.3319
▁편견	-10.332
쳤다	-10.3326
우스	-10.3327
▁의미가	-10.333
▁짧은	-10.333
▁맞지	-10.3336
었을	-10.3345
웨이	-10.3345
▁ᄌ	-10.3345
▁있네	-10.3346
떨	-10.3346
당한	-10.3353
▁최고의영화	-10.3355
▁=	-10.336
낭	-10.336
▁갖고	-10.3363
렵	-10.3363
▁분들은	-10.3368
벼	-10.3369
J	-10.3369
^-^	-10.3369
ᄁ	-10.3369
▁내생애	-10.3369
▁빵빵	-10.3369
▁집착	-10.337
분만에	-10.3374
▁웃으면서	-10.3375
▁별로고	-10.3376
재미도	-10.3382
부러	-10.3382
▁어렵다	-10.3383
▁당연	-10.3383
▁배역	-10.3388
일듯	-10.3388
▁시간만	-10.3389
제로	-10.3391
글자	-10.3393
▁변화	-10.3395
▁보다는	-10.3396
기억이	-10.3397
▁벤	-10.3409
ut	-10.3411
▁본인	-10.3412
▁다루	-10.3415
<	-10.3416
L	-10.3416
▁잔잔하면서	-10.342
느껴	-10.342
▁없습니다	-10.342
▁교훈을	-10.3425
▁재미있을	-10.3426
▁넘게	-10.3429
▁주연배우	-10.3431
▁살린	-10.344
▁싶어요	-10.3443
▁재밌어서	-10.3443
언제	-10.3443
없네요	-10.3478
스럽지	-10.3481
ᅮᅲ	-10.3485
건가요	-10.3488
▁볼때	-10.3489
야겠다	-10.3498
▁아름답	-10.3502
▁하길래	-10.3503
▁맞추	-10.3517
객	-10.352
▁싸움	-10.3521
▁잘만들었	-10.3525
학년	-10.3526
닫	-10.3527
묵	-10.3527
▁줍니다	-10.3528
▁강렬한	-10.3528
▁명복을	-10.3528
갠적으로	-10.353
▁놀라운	-10.3536
타임	-10.3539
▁여자주인공	-10.3539
▁있었는데	-10.354
▁하늘	-10.3541
▁좋겠네요	-10.3546
인물	-10.355
이랄까	-10.3551
▁기대했	-10.3551
▁내용과	-10.3553
말이필요없	-10.3559
▁그자체	-10.356
▁보다니	-10.3562
▁소설을	-10.3563
▁폐	-10.3569
▁책을	-10.3569
▁막장드라마	-10.357
옆	-10.357
▁난잡	-10.3573
▁둘이	-10.3575
▁명장면	-10.3575
▁흑인	-10.3578
▁나랑	-10.358
▁없었음	-10.3581
썼	-10.3583
로드	-10.3584
~~!!	-10.3585
차원	-10.36
낚	-10.3604
▁잤	-10.3605
공주	-10.361
,,,,,,	-10.3613
거같음	-10.3616
말아먹	-10.3621
소름	-10.3623
드만	-10.3624
▁대단하	-10.3627
▁자랑	-10.3637
▁L	-10.364
ad	-10.364
▁듣고	-10.3642
▁귀엽다	-10.3644
▁하아	-10.365
▁샘	-10.365
해야할	-10.3653
▁만들기	-10.3654
▁반전을	-10.3658
▁다운	-10.3662
▁짜증만	-10.3664
발연기	-10.3665
뿐이다	-10.3676
역사	-10.3679
닼	-10.3689
▁뱀파이어	-10.3689
▁임팩트	-10.3689
▁할리우드	-10.3689
뎅	-10.3689
▁끔찍	-10.3689
▁유일하게	-10.3689
▁처절	-10.3695
▁첫사랑	-10.3696
살인	-10.3697
▁허술한	-10.3697
▁두번째	-10.37
▁한숨	-10.3701
지마세요	-10.3705
▁넘치	-10.3705
▁생긴	-10.3707
▁반담	-10.371
▁본듯	-10.3718
▁몰랐다	-10.372
▁부모님	-10.372
▁자체는	-10.3721
▁감독을	-10.3721
겨운	-10.3728
져요	-10.3728
▁가정	-10.373
▁믿기지	-10.374
▁싸우는	-10.3741
존나	-10.3742
▁사랑해요	-10.3744
도대체	-10.3756
▁참신하	-10.3756
조아	-10.3756
▁안간다	-10.3757
▁진부	-10.3757
100	-10.3767
웃겨	-10.3767
류영화	-10.3773
상황	-10.3777
▁볼만했다	-10.3777
했을때	-10.378
싶다	-10.3781
베리	-10.3782
▁하나로	-10.3787
혹은	-10.3792
소설	-10.3794
~~^^	-10.3797
▁마음으로	-10.3807
▁받는	-10.3809
스토	-10.381
▁영화라니	-10.382
▁스릴도	-10.3821
▁배우들은	-10.3831
었나	-10.3832
않음	-10.3834
제작	-10.384
▁생기	-10.3844
할뿐	-10.3847
▁아냐	-10.3852
랙	-10.3853
갱	-10.3853
▁조니뎁	-10.3853
짤	-10.3853
▁아닙니다	-10.3853
찐	-10.3853
▁아놀드	-10.3853
▁of	-10.3853
▁영환데	-10.3854
▁감정이입	-10.3855
▁60	-10.3859
▁저평가	-10.386
▁어째	-10.3863
▁조잡	-10.3865
▁쉽지	-10.3865
▁디워	-10.3865
후반	-10.3868
구리	-10.3872
들끼리	-10.3874
▁대놓고	-10.3874
▁성격	-10.3875
두고	-10.3878
▁살아가는	-10.3879
▁강한	-10.3888
40	-10.3888
▁바다	-10.389
▁불편한	-10.3893
놨네	-10.3893
▁답답하고	-10.3904
▁반대	-10.3905
▁폐지	-10.3912
▁F	-10.3914
▁호구	-10.3915
할것	-10.3916
였나	-10.3918
▁이용	-10.3918
번을	-10.3922
▁없냐	-10.3924
▁멋지고	-10.3926
▁매일	-10.3927
▁소재도	-10.3937
쩐다	-10.3938
▁거리	-10.394
▁음식	-10.3941
▁발상	-10.3951
▁관점	-10.3962
▁많은데	-10.3963
극장에서	-10.3963
▁낮게	-10.3967
▁맛이	-10.3969
바라	-10.397
▁그만큼	-10.3972
좋아하	-10.3977
▁세번	-10.398
▁안봐도	-10.3981
▁아쉬움이	-10.3984
▁어른이	-10.3988
▁포스터만	-10.3988
▁어울리는	-10.3989
▁보기에는	-10.3995
▁몽	-10.3995
▁멋졌	-10.4001
▁주제를	-10.4003
▁꽤나	-10.4011
▁삼류영화	-10.4012
▁보는거	-10.4013
너무너무	-10.4014
었는지	-10.4016
▁돈을	-10.4018
폼	-10.4018
▁빕니다	-10.4019
▁컴퓨터	-10.4019
깃	-10.4019
땀	-10.4019
뭣	-10.4019
밴	-10.4019
탱	-10.4019
부끄럽	-10.4019
▁깡패	-10.4019
▁이소룡	-10.4019
▁홍상수	-10.4019
▁플롯	-10.402
▁뭥미	-10.402
▁바랍니다	-10.4022
▁흐르는	-10.4022
▁끼워	-10.4027
▁다운받	-10.4027
▁근래	-10.4031
아아아	-10.4031
방식	-10.4034
줄알았는데	-10.4035
▁영화예요	-10.4036
▁첨엔	-10.4038
▁괜찮았는데	-10.4038
만족	-10.4041
▁무료	-10.4045
▁인해	-10.4049
▁흑	-10.405
▁생각으로	-10.4054
될듯	-10.4059
이런류의	-10.4062
이딴	-10.4069
▁시간아깝다	-10.4074
▁짜증이	-10.4076
▁한국판	-10.4083
90	-10.4086
▁연인	-10.4088
▁않나	-10.4092
▁보라	-10.4094
볼수	-10.4094
거죠	-10.4095
▁밀려	-10.4099
▁소년	-10.4099
▁충분	-10.4101
춤	-10.4102
벗	-10.4102
분위기	-10.4104
불쌍	-10.4105
느끼	-10.411
▁받은	-10.4114
▁난해하	-10.4131
▁무섭지	-10.4134
▁이상해	-10.4134
보인다	-10.4135
▁죽인	-10.4136
든지	-10.4138
▁추리	-10.4147
▁포스터에	-10.4147
▁봅니다	-10.415
▁있으	-10.4157
▁뭐니	-10.4159
▁그럴듯	-10.4161
▁방식	-10.4164
▁나네요	-10.4164
▁엉망이	-10.417
▁보고싶어	-10.4171
▁실화를	-10.4178
게만드는	-10.4179
▁힘내	-10.4186
꼈	-10.4188
해주고	-10.4189
삭	-10.4189
얄	-10.4189
젖	-10.4189
퓨	-10.4189
앨	-10.4189
▁제시카	-10.4189
▁희대의	-10.4189
멋있	-10.419
▁명대사	-10.4192
▁배경음악	-10.4193
이었습니다	-10.4195
▁그야말로	-10.42
▁손에	-10.4205
▁주인공은	-10.4213
▁결말을	-10.4217
▁어거지	-10.422
▁정신병자	-10.4226
있지	-10.4227
▁감동받	-10.4229
었을까	-10.4229
라는걸	-10.4231
보긴	-10.4231
▁머리가	-10.4234
▁작가님	-10.4235
▁없나요	-10.4237
th	-10.4237
▁점수는	-10.424
▁느껴지	-10.4241
짱짱	-10.4248
▁나오네	-10.4248
볼수있	-10.4258
하겠다	-10.4263
▁생에	-10.4264
숨	-10.4267
▁섬	-10.4268
▁대본	-10.4273
섬	-10.4279
▁재미없을	-10.4279
귀엽	-10.4281
엄청	-10.4284
▁떨어지고	-10.4286
▁수입	-10.4292
▁저급	-10.4297
▁재미있는데	-10.4297
▁여주인공이	-10.4306
▁없으면	-10.4308
▁보던	-10.431
▁아니지	-10.4312
깝	-10.4323
나왓	-10.4323
▁재밋어요	-10.4326
▁여주가	-10.4329
▁정신없	-10.4333
▁무섭고	-10.4335
▁순수함	-10.4338
▁위해서	-10.4339
아닌가	-10.4345
보여주	-10.4352
▁그건	-10.4353
에대해	-10.4354
작이라	-10.4354
▁쓰는	-10.4354
납	-10.4359
쿵	-10.4361
컴	-10.4361
ᄡ	-10.4361
▁대통령	-10.4361
▁우뢰매	-10.4361
▁짐캐리	-10.4361
럭	-10.4361
▁고등학교	-10.4361
▁쓸데없이	-10.4361
웟	-10.4361
켄	-10.4361
▁박중훈	-10.4361
덩어리	-10.4361
▁하정우	-10.4362
사건	-10.4365
▁모른다	-10.4366
▁아닐	-10.437
▁사라지	-10.437
▁알았네	-10.437
▁자아	-10.4373
미친	-10.4374
▁현실과	-10.4374
분동안	-10.438
앞에서	-10.4382
▁중독	-10.4382
▁주제가	-10.4387
▁인형	-10.4388
▁부분도	-10.4389
▁애매	-10.4392
▁한개도	-10.4393
▁이름이	-10.4393
▁독일	-10.4396
▁아름답게	-10.4397
▁살리	-10.4398
▁우연	-10.441
장면은	-10.4419
▁짜증나서	-10.442
▁손발	-10.442
나보다	-10.4423
어색	-10.4428
▁세상이	-10.4439
▁아래	-10.4441
▁쩔어	-10.4444
▁한국영화의	-10.4445
아직도	-10.4464
코믹	-10.4465
▁사상	-10.4465
▁잔잔하	-10.4467
있으면	-10.4477
▁정도면	-10.4478
▁재미있어	-10.4479
▁공감할	-10.4495
씀	-10.4505
▁알겠다	-10.4507
▁유치해	-10.4509
듯하다	-10.451
▁아예	-10.4514
▁갑니다	-10.4514
▁ᄃᄃᄃ	-10.4515
▁배경이	-10.4521
▁아내	-10.4527
▁보게된	-10.4532
▁하다가	-10.4536
ᅢ	-10.4537
▁터미네이터	-10.4537
뻥	-10.4537
▁아무생각없이	-10.4537
▁움직이	-10.4537
▁이토록	-10.4537
▁스포츠	-10.4537
▁반드시	-10.4537
▁정우성	-10.4537
▁어디가	-10.4537
보느니	-10.4538
▁착각	-10.4539
▁평균	-10.454
▁이것보단	-10.4541
▁여러번	-10.4544
▁루즈	-10.4544
▁당연히	-10.4544
▁돈내고	-10.4545
▁부럽	-10.4548
▁ᄒᄒᄒᄒ	-10.4548
▁싶었다	-10.455
▁내용전개	-10.4554
나오네	-10.4559
질질끌	-10.4559
부분은	-10.4564
▁혹시나	-10.4564
좋네요	-10.4568
▁하지원	-10.4569
▁사랑해	-10.457
▁꿀	-10.4572
▁도망	-10.4572
찾아	-10.4574
미국	-10.4579
▁때려	-10.4581
▁이해할수	-10.4585
내용은	-10.4585
▁본건데	-10.4593
▁키스	-10.4594
▁유발	-10.4601
먹은	-10.4602
현실적	-10.4603
▁영상미가	-10.4608
▁이상하고	-10.4608
▁잤다	-10.461
당시	-10.4621
▁삶이	-10.4623
▁그지같	-10.4635
탑	-10.4646
▁멋있는	-10.4655
▁장난아니	-10.466
▁만들어주	-10.466
노답	-10.4661
▁자리	-10.4663
보고있어요	-10.4667
▁작품입니다	-10.4669
나름	-10.467
혼자	-10.4677
델	-10.4678
행복	-10.4679
겠죠	-10.4682
므	-10.4682
재밋엇	-10.4686
여운	-10.47
▁괜찮았다	-10.4707
▁아깝네	-10.471
쩜	-10.471
▁예수	-10.471
▁당신은	-10.4712
곱	-10.4715
쫓	-10.4715
▁명불허전	-10.4715
▁설득력	-10.4715
뢰	-10.4715
똘	-10.4715
▁드디어	-10.4715
▁짜집기	-10.4715
▁양아치	-10.4715
▁익숙	-10.4716
▁즐겨	-10.4716
▁폭풍	-10.4718
▁맞춰	-10.4718
▁만화책	-10.4722
답니다	-10.4724
▁만들었을까	-10.4726
▁추격	-10.4728
▁자신이	-10.473
▁거품	-10.4731
▁짜증남	-10.4735
거든	-10.4741
500	-10.4741
▁훈훈하	-10.4744
▁즐겁	-10.4745
▁불쌍한	-10.4746
왔어요	-10.4749
80	-10.4751
▁말자	-10.4757
햇는데	-10.4759
▁높아서	-10.4762
▁생각했는데	-10.4764
▁영원한	-10.477
▁재난	-10.4771
둥이	-10.4772
올라	-10.4779
▁않았지만	-10.4779
▁좋을듯	-10.4781
보고싶어요	-10.4788
▁심각하	-10.4794
▁하하	-10.4795
▁못보겠다	-10.4796
있었다	-10.4799
하시길	-10.48
외로	-10.4803
▁가수	-10.481
▁목적	-10.481
▁어처구니	-10.4813
▁부부	-10.4815
▁등장인물	-10.4816
▁철학적	-10.4827
궁	-10.4832
▁거기에	-10.4835
아버지	-10.4835
왠	-10.4836
▁가능한	-10.4837
▁황당한	-10.4839
▁허무한	-10.484
▁:)	-10.4845
▁그립	-10.4846
▁자신을	-10.4848
▁명배우	-10.4853
▁따뜻해	-10.4867
▁매력에	-10.4874
모자	-10.4876
아이들	-10.488
윈	-10.4882
재미없어	-10.4885
뷰	-10.4895
▁케릭터	-10.4897
랴	-10.4897
▁유덕화	-10.4897
쟈	-10.4897
▁박진감	-10.4897
▁우려먹	-10.4897
▁이해불가	-10.4897
▁도무지	-10.4898
▁빠른	-10.4902
▁아무런	-10.4903
▁흘리	-10.4906
▁향수	-10.4906
귀신	-10.491
▁봤다면	-10.491
▁볼만합니다	-10.4912
▁아만다	-10.4915
▁난리	-10.4915
▁100%	-10.4918
▁소중함을	-10.492
▁부담	-10.4924
▁안보는게	-10.4929
▁to	-10.493
▁울면서	-10.4931
▁시작부터	-10.4934
▁생각난다	-10.4936
▁욕심	-10.494
▁원조	-10.4942
간만에	-10.4947
▁생각할	-10.4951
▁다신	-10.4952
스톤	-10.4952
▁아깝네요	-10.4956
소녀	-10.4957
▁아프다	-10.4958
▁ᄒᄃᄃ	-10.4963
▁책으로	-10.4967
▁끝날때	-10.4969
▁여자애	-10.4974
보기싫	-10.4978
▁별하나	-10.4979
흑	-10.4981
▁재밋음	-10.4982
▁소화	-10.4983
▁배신	-10.4983
▁밤에	-10.4992
▁빠르	-10.5
광구	-10.5004
▁아프	-10.5018
▁목소리가	-10.5024
톤	-10.5027
마냥	-10.503
목소리	-10.5036
▁망쳐	-10.5052
봣다	-10.5055
▁보려	-10.506
싫어	-10.506
▁박수	-10.5068
▁아들이	-10.507
뻔했다	-10.5071
▁역사를	-10.5072
풋풋	-10.5079
뚝	-10.5082
욤	-10.5082
및	-10.5082
▁나레이션	-10.5082
▁떨어짐	-10.5083
표정	-10.5083
▁배꼽	-10.5085
ch	-10.5087
▁축구	-10.5087
▁장애인	-10.5088
▁은근히	-10.5088
▁폭발	-10.5091
▁만들어낸	-10.5097
▁동양	-10.5101
갈때	-10.5112
▁화나	-10.5117
▁잔잔하게	-10.5118
▁재밌었던	-10.5119
지루하고	-10.5119
▁친구가	-10.5119
▁스토리전개	-10.5121
하는건지	-10.5121
▁진한	-10.5132
▁얼굴이	-10.5135
것보다	-10.5143
▁볼려고	-10.5144
최고다	-10.5145
▁비슷하	-10.5146
▁기대없이	-10.5146
▁안될	-10.515
▁감동적이네요	-10.5151
▁제목을	-10.5151
이었던	-10.5152
▁보이지	-10.5154
▁아우	-10.5158
▁몰라	-10.5158
▁말하고자	-10.5162
▁후에	-10.5175
시원	-10.5176
도좋고	-10.5176
▁정작	-10.5183
▁다시보고	-10.5184
▁적당한	-10.5185
▁명연기	-10.5189
만큼이나	-10.5198
뭐지	-10.5201
▁추천하고	-10.5202
▁미국식	-10.521
▁지겹	-10.5213
▁전쟁의	-10.5219
멍	-10.5219
못하겠	-10.522
벤	-10.5223
잊	-10.5223
캐스팅	-10.5225
TV	-10.5227
▁액션과	-10.5236
곳에	-10.524
▁갖다	-10.5246
▁찾아볼	-10.5251
재미있어요	-10.5255
주기도	-10.5261
▁감정이	-10.5263
으려고	-10.5264
ᄍ	-10.5264
랍	-10.5267
젊	-10.5268
측	-10.5269
▁아진짜	-10.5269
▁답답해	-10.527
▁살렸다	-10.5271
▁스타워즈	-10.5271
밧	-10.5271
▁공짜로	-10.5271
▁즐길	-10.5272
듭니다	-10.5272
▁블랙코미디	-10.5272
괜찬	-10.5273
▁왠만한	-10.5274
▁앞뒤	-10.5274
▁깨알	-10.5278
▁2000	-10.5279
▁판단	-10.528
▁작품이라	-10.5282
지루하다	-10.5283
조연	-10.5284
▁어느정도	-10.5285
▁억지감동	-10.5286
▁마지막까지	-10.5289
▁매니아	-10.529
▁꼭보세요	-10.529
▁무겁	-10.5293
▁보았는데	-10.5296
▁좋네	-10.5299
티가	-10.5302
▁친구랑	-10.5304
▁마니	-10.5305
▁기대하지	-10.5311
못하는	-10.5314
▁소름끼치는	-10.5323
▁알았음	-10.5325
▁그렇지만	-10.5328
▁확인	-10.5336
▁아니었다	-10.534
▁말밖에	-10.5342
했다면	-10.5342
▁유치해서	-10.5344
▁운명	-10.5346
▁왜곡	-10.535
▁보겠다	-10.5351
편까지	-10.5353
▁중심	-10.5353
스릴	-10.5355
맞는	-10.5356
▁타란티노	-10.5361
▁전편보다	-10.5363
▁기적	-10.5364
빼	-10.5364
놈들은	-10.5367
▁끝나서	-10.5369
▁없게	-10.5378
▁깔끔한	-10.5383
외엔	-10.5394
▁놀랍	-10.5397
알아	-10.5402
▁어색하고	-10.5404
▁쩌는	-10.5408
▁어디로	-10.5409
▁대학	-10.5409
꿀	-10.542
늙	-10.5422
▁죽었	-10.5423
▁빛을	-10.5423
핵	-10.5424
나왔으면	-10.5425
받을	-10.5429
신분	-10.5432
없나	-10.5432
선택	-10.5434
▁혹시	-10.5435
바람	-10.5436
유쾌하게	-10.5438
▁희망을	-10.5439
▁눈물나	-10.5442
▁초등학교	-10.5457
같아요	-10.5458
▁가고	-10.5459
▁네티즌	-10.5463
▁웰메이드	-10.5463
▁빨갱이	-10.5463
스파이더맨	-10.5463
읍	-10.5463
▁브루스	-10.5463
▁첩보	-10.5464
▁무엇인가	-10.5464
▁향연	-10.5464
▁뭐하자는	-10.5465
▁귀여움	-10.5465
▁낭만	-10.5466
▁풋풋한	-10.5466
▁좋았을텐데	-10.5467
▁짜증나고	-10.5468
▁장난하냐	-10.5469
▁로빈	-10.547
잖아요	-10.5471
▁적어도	-10.5471
▁상영관	-10.5474
▁마시길	-10.5475
▁요새	-10.5476
것같은데	-10.5478
▁만들었나	-10.5479
▁재미있었습니다	-10.548
▁인간은	-10.548
▁찾을	-10.5481
▁이해를	-10.5485
▁표현할	-10.5485
▁귀여워요	-10.5486
▁슬픈영화	-10.5487
▁하품	-10.5487
▁사람이라면	-10.5489
▁다행이다	-10.5491
꺼야	-10.5491
맘에	-10.5494
순위	-10.5495
▁예술영화	-10.5499
▁있었으면	-10.5501
▁수많은	-10.5501
▁만들어서	-10.5501
▁순수하고	-10.5502
▁보았던	-10.5505
점만점에	-10.5507
▁평화	-10.551
▁많아서	-10.5511
광고	-10.5519
▁최악의영화	-10.5521
▁사랑스럽다	-10.5525
▁첨이다	-10.5531
▁사랑합니다	-10.5536
▁보고나니	-10.5539
곳에서	-10.5545
▁이딴영화	-10.5555
선수	-10.5558
ce	-10.5561
▁곧	-10.5573
것처럼	-10.5573
셔야	-10.5575
▁않은데	-10.5578
▁재미없었	-10.5583
▁내일	-10.5618
▁김치	-10.5619
▁찍는	-10.5635
▁안본다	-10.5645
보신분들	-10.565
멈	-10.5659
윌	-10.5659
셋	-10.5659
▁movie	-10.5659
▁점수준것들	-10.5659
▁화장실	-10.5659
걷	-10.5659
인상깊었	-10.5659
▁가까운	-10.5659
▁사투리	-10.566
▁하이틴	-10.566
▁누군지	-10.566
▁스타뎀	-10.566
▁심지어	-10.5661
▁역겨운	-10.5661
▁흑백	-10.5661
▁오래전에	-10.5664
보내	-10.5665
▁할아버지	-10.5665
전혀	-10.5666
▁낫겠다	-10.5667
부분에서	-10.5668
▁개콘	-10.5671
▁서울	-10.5673
자마자	-10.5677
▁잘못된	-10.5679
▁마지막엔	-10.5682
▁보시면	-10.5683
▁미안하다	-10.5686
▁울었어요	-10.5686
것같네요	-10.5686
시간동안	-10.5688
▁처음에는	-10.5689
뭐냐	-10.569
▁기존	-10.5691
▁괜찮고	-10.5694
▁웃었다	-10.5695
▁재미있었음	-10.5695
▁담긴	-10.5697
또보고싶	-10.57
▁나을듯	-10.5701
▁실감	-10.5706
▁절정	-10.5706
▁실망스럽	-10.5722
하나하나가	-10.5726
▁뭐임	-10.5728
였지	-10.574
▁답이	-10.5749
터짐	-10.5749
등록	-10.575
▁잼있음	-10.5751
▁고어	-10.5758
▁잘만들었다	-10.5763
▁실수	-10.5763
▁두시간	-10.5763
겐	-10.5777
▁화끈	-10.5784
답게	-10.5786
상영	-10.5789
▁만난	-10.5795
멜	-10.5797
▁가득한	-10.5798
15	-10.58
▁시대의	-10.5803
▁파리	-10.5811
지루해	-10.5813
해지고	-10.583
시나리오	-10.5838
비슷	-10.5838
▁심한	-10.584
▁찍고	-10.584
50	-10.584
되요	-10.5856
누님	-10.5859
팍	-10.5859
퀄	-10.5859
▁감명깊게	-10.5859
▁류승범	-10.5859
띠	-10.5859
버렸네	-10.5859
툭	-10.5859
넬	-10.5859
닭	-10.5859
븐	-10.5859
▁오글오글	-10.586
▁한효주	-10.586
▁혐오	-10.586
▁일본인	-10.5861
▁환경	-10.5861
▁민폐	-10.5861
▁그려낸	-10.5862
나쁜	-10.5863
▁일부러	-10.5866
▁감동적이에요	-10.5866
▁그림체	-10.5868
긴했지만	-10.5869
▁귀여	-10.5869
▁파괴	-10.587
▁고독	-10.5871
▁에효	-10.5872
겠는데	-10.5874
제대로	-10.5879
▁치유	-10.5895
▁재미있었는데	-10.5896
▁유행	-10.5902
재미있다	-10.5906
▁언제까지	-10.5906
▁공간	-10.591
▁사람들에게	-10.5913
am	-10.5914
▁그동안	-10.5915
해줄	-10.5917
하지말고	-10.5918
▁위트	-10.5918
그러나	-10.5919
▁생명	-10.5921
ll	-10.5928
▁넘넘	-10.5928
▁내돈	-10.5929
▁잠시	-10.5952
▁모르겠네	-10.5953
▁어울리지	-10.5953
▁잼있네요	-10.5959
뻔함	-10.5967
▁찾아서	-10.597
곳이	-10.5974
당시엔	-10.5985
▁괜찮게	-10.5988
▁놓치	-10.5996
천원	-10.6001
▁대신	-10.6022
▁시도는	-10.6023
▁한방	-10.6036
못하고	-10.6042
픔	-10.6045
꼽	-10.6046
줘야지	-10.6047
그렇게	-10.605
싫다	-10.6052
CG	-10.6052
픽	-10.6059
여배우	-10.606
엽	-10.606
갠	-10.6061
소재와	-10.6062
▁늑대	-10.6063
덩	-10.6063
▁놀랐다	-10.6064
뱀	-10.6064
츄	-10.6064
▁흡입력	-10.6064
껀	-10.6064
눌	-10.6064
렐	-10.6064
▁신하균	-10.6064
▁오프닝	-10.6064
▁언젠가	-10.6064
▁자동차	-10.6064
▁전반적으로	-10.6064
▁도데체	-10.6064
▁박보영	-10.6064
쯧쯧	-10.6064
▁호기심	-10.6064
▁배급사	-10.6064
▁일주일	-10.6064
▁흥미로웠	-10.6064
▁장난치	-10.6064
▁극혐	-10.6065
▁스파이	-10.6065
▁죄송	-10.6065
▁예측	-10.6066
였네요	-10.6067
▁실험	-10.6068
▁생각해보게	-10.6068
보임	-10.6072
▁부활	-10.6074
▁말아야	-10.6081
▁말하려는	-10.6082
▁여친	-10.6082
▁장난하나	-10.6084
▁현실감	-10.6085
▁아파	-10.6086
ve	-10.6086
▁마약	-10.6088
▁살인마	-10.6088
▁재능	-10.6089
되네	-10.6089
▁빠지는	-10.6089
▁모르지만	-10.6093
▁탄탄하고	-10.6094
으리	-10.6101
ed	-10.6104
▁녹아	-10.6114
^^;	-10.6123
있지만	-10.6126
에비해	-10.6133
▁시작해서	-10.6141
지못한	-10.6146
▁다르게	-10.6148
▁등장인물들	-10.6156
하니까	-10.6157
▁프랑스영화	-10.6158
였다면	-10.616
▁맞나	-10.6164
▁충분한	-10.6166
▁벗어	-10.6172
거에요	-10.6176
▁소장하고	-10.6188
▁짝이	-10.619
▁편안	-10.62
있어요	-10.6202
▁살다	-10.6205
▁느낌이다	-10.6213
▁재미없네요	-10.6215
▁인상적인	-10.6226
▁정상	-10.6247
갖	-10.6266
폴	-10.6266
▁당할	-10.6266
평론가	-10.6267
훌륭	-10.6268
쯔	-10.6272
렀	-10.6272
퉁	-10.6272
▁EBS	-10.6272
랩	-10.6272
숀	-10.6272
쩍	-10.6272
맴	-10.6272
템	-10.6272
▁왕조현	-10.6272
쇄	-10.6272
오랫동안	-10.6272
▁강동원	-10.6272
▁적절한	-10.6272
▁이끌어	-10.6272
▁케빈	-10.6272
살때	-10.6273
▁엽기	-10.6273
▁짜릿	-10.6274
▁고딩	-10.6277
▁말그대로	-10.6278
녀석	-10.628
▁등등	-10.6281
허무	-10.6284
▁유럽	-10.6287
▁개똥	-10.6288
▁거북	-10.6289
▁여태	-10.6292
▁액션신	-10.6294
▁첨부터	-10.6301
앞으로	-10.6302
▁자극적	-10.6304
▁괜찮았음	-10.6305
돈주고	-10.6306
▁역겹다	-10.6313
▁궁금해서	-10.6314
▁숨은	-10.6327
▁마지막회	-10.6334
▁어이없다	-10.6334
유발	-10.6337
▁좋아하지만	-10.6337
▁만들어라	-10.6343
▁뭐라고	-10.6351
능력	-10.6357
▁승리	-10.6359
있을까	-10.6368
▁무섭게	-10.6369
사실	-10.6372
할줄	-10.6376
ᄃᄃᄃ	-10.6377
▁이거보다	-10.6384
▁만화영화	-10.6385
▁사랑한다	-10.6392
▁캐리	-10.6395
▁불가능	-10.6398
▁가족들	-10.6399
▁의사	-10.6405
▁돼지	-10.6414
▁망할	-10.6425
대전	-10.6426
▁괜찮아	-10.646
법한	-10.6465
▁이만한	-10.6466
▁마시	-10.6468
▁만들어졌	-10.6474
▁미소가	-10.6481
뭉	-10.6485
샌	-10.6485
ᄊ	-10.6485
▁둘째치고	-10.6485
▁못봐주겠	-10.6485
▁송강호	-10.6485
▁알파치노	-10.6485
▁오그라드는	-10.6485
몫	-10.6485
쉴	-10.6485
▁2.22	-10.6485
릇	-10.6485
쉐	-10.6485
헉	-10.6485
▁임창정	-10.6485
▁어두운	-10.6485
▁무거운	-10.6485
▁삭제	-10.6485
▁격투	-10.6486
▁목숨	-10.6486
▁끌고	-10.6487
▁로맨틱코미디	-10.6488
▁볼것	-10.6489
코메디	-10.649
▁좋으나	-10.6492
▁앉아	-10.6493
▁신선함	-10.6494
명성에	-10.6495
▁절망	-10.6495
ost	-10.6497
▁충분하다	-10.6499
▁개꿀잼	-10.6504
▁떨어져	-10.6505
▁흥분	-10.6509
점주기도	-10.6514
겼다	-10.6517
▁가족애	-10.6518
보지마라	-10.652
▁답답하다	-10.6524
▁보고싶은데	-10.6525
▁이번에	-10.6527
▁낮은지	-10.6528
▁역사상	-10.6528
▁독특하고	-10.6532
▁어이없음	-10.6535
있네요	-10.6545
▁모르겠네요	-10.6554
▁빠져서	-10.6555
▁삶과	-10.6555
만드나	-10.6558
▁반영	-10.656
very	-10.6566
▁기대이하	-10.6567
▁이거보단	-10.6567
▁좋지	-10.6569
▁대사들	-10.6576
해줘서	-10.6586
▁벗어나	-10.6592
아니면	-10.6596
▁잘한다	-10.6606
▁상대	-10.661
싶은데	-10.6622
볼까	-10.663
둥	-10.6633
났음	-10.6638
겠어	-10.6643
망작	-10.665
비추	-10.6651
▁상어	-10.6653
▁대박이다	-10.6658
▁필요한가	-10.666
▁때리	-10.6683
▁제작비가	-10.6689
▁도시	-10.6692
앉	-10.6694
떤	-10.6697
▁나무	-10.6702
곽	-10.6702
덴	-10.6702
옳	-10.6702
▁미스캐스팅	-10.6702
▁아기자기	-10.6702
▁이병헌	-10.6702
룰	-10.6702
▁쓸데없는	-10.6702
점준것중	-10.6702
마누라	-10.6703
▁ᄌᄂ	-10.6703
▁상관없	-10.6703
▁킬러	-10.6703
▁상큼	-10.6704
▁영원	-10.6704
▁어설프다	-10.6704
▁픽사	-10.6706
▁위험	-10.6707
▁빛나는	-10.6707
▁잘생겼	-10.6708
▁진지한	-10.6711
꿈	-10.6714
▁중학생	-10.6715
▁은근	-10.6716
▁태국	-10.6716
he	-10.6717
지겨워	-10.6718
▁귀여웠	-10.6721
▁거지같은	-10.6726
ri	-10.6739
므로	-10.6742
였구나	-10.6745
▁미녀	-10.6751
편집	-10.6765
줘요	-10.6773
있었던	-10.6784
하겠습니다	-10.6799
지않게	-10.68
▁뛰어넘는	-10.68
▁배경으로	-10.6801
▁코믹영화	-10.6804
▁어쩌다	-10.6808
->	-10.6808
삼류	-10.6822
되길	-10.6822
▁피해	-10.6823
신분들	-10.6825
▁짜증나게	-10.6826
▁부정	-10.6848
▁낚인	-10.6853
▁나와야	-10.6856
좀비	-10.6864
▁새벽	-10.6864
▁처음이네	-10.6865
▁의상	-10.6866
▁여신	-10.6873
▁들어간	-10.689
▁전문	-10.6909
당신	-10.691
당하는	-10.6914
ow	-10.6915
하는구나	-10.6922
▁인터넷	-10.6924
▁시간때우기	-10.6924
캡	-10.6924
퉤	-10.6924
덮	-10.6924
▁섬세한	-10.6924
▁김혜수	-10.6924
▁칭찬	-10.6924
어울림	-10.6925
▁기발한	-10.6925
▁두고두고	-10.6925
▁혁명	-10.6926
▁4.44	-10.6928
흑흑	-10.6929
페이스	-10.693
▁서양	-10.6931
▁상징	-10.6932
▁극복	-10.6933
▁드림	-10.6941
▁로망	-10.6942
낭비	-10.6945
▁되는데	-10.6945
▁한심하다	-10.6947
잤	-10.6947
쩝	-10.6948
▁부족함	-10.6955
학년때	-10.6956
하거나	-10.6958
봣어요	-10.6959
경찰	-10.6962
월드	-10.6964
▁산만하고	-10.6969
잭슨	-10.6969
▁최고에요	-10.6972
▁완벽하다	-10.6974
할수있는	-10.6977
특집	-10.698
각본	-10.6982
▁인디	-10.6983
드립	-10.6985
▁초반부	-10.699
▁잊고	-10.6996
▁있긴	-10.7002
▁한번더	-10.7015
▁선사	-10.7019
▁여인	-10.7019
재밋음	-10.7024
극히	-10.703
▁불안	-10.7038
믿고	-10.7044
▁빠졌	-10.7052
▁절로	-10.7052
▁자극적인	-10.7054
외에는	-10.706
▁이것보다	-10.7069
중국	-10.707
▁사용	-10.7072
▁옆에	-10.709
▁달려	-10.709
돌려	-10.7108
▁답답함	-10.7151
▁가야	-10.7151
퀸	-10.7151
됫	-10.7152
빗	-10.7152
▁유치찬란	-10.7152
셜	-10.7152
엮	-10.7152
킴	-10.7152
▁비쥬얼	-10.7152
▁아름다워	-10.7152
▁짬뽕	-10.7152
옮	-10.7152
▁여러모로	-10.7152
▁되돌아	-10.7152
▁김수현	-10.7152
▁섬뜩	-10.7152
▁아쉬울	-10.7152
▁바탕으로	-10.7152
▁도둑	-10.7155
▁풀어낸	-10.7155
▁방황	-10.7157
▁묘한	-10.716
▁동영상	-10.716
▁옛날영화	-10.7161
▁엄청나게	-10.7161
▁라스트	-10.7161
▁이도저도	-10.7163
▁감동적입니다	-10.7163
맞음	-10.7163
▁좋겠습니다	-10.7165
▁전체적인	-10.7165
었구나	-10.7166
▁느껴지지	-10.7171
▁모욕	-10.7174
▁괜찮았던	-10.7177
▁보고있는데	-10.7183
▁다운받아서	-10.7185
립니다	-10.7186
▁충격적인	-10.7188
뭘	-10.7188
로맨스	-10.719
초딩	-10.7192
▁보라고	-10.7193
▁무엇이	-10.7196
▁만들었냐	-10.7196
▁안나온다	-10.7198
▁십점	-10.72
▁평소	-10.7201
개인적으로	-10.7202
▁공유	-10.7203
하자면	-10.7204
▁사랑스럽고	-10.7204
▁웃겼다	-10.721
결국	-10.7211
▁원하는	-10.7215
겠는가	-10.7221
아닌데	-10.7223
▁아까워서	-10.7225
▁팬들	-10.7226
아무리	-10.7226
▁드네요	-10.7231
▁밋밋한	-10.7232
▁형편없는	-10.7236
▁건질	-10.724
이후로	-10.7245
▁결론은	-10.7249
▁욕먹	-10.7254
▁티비로	-10.7257
▁여배우들	-10.7258
▁전설이	-10.7263
안된다	-10.7266
하고싶다	-10.7268
복수	-10.727
▁하드	-10.7272
속으로	-10.7276
▁뜬금없는	-10.7277
밖	-10.7286
멋잇	-10.729
▁넣어	-10.7291
ma	-10.7296
먹었	-10.7298
▁싫어하는	-10.7298
쁜	-10.7304
▁후하게	-10.7325
것같아	-10.7327
하실	-10.7342
se	-10.7344
▁가시	-10.7345
▁정신병	-10.7346
▁뻔하다	-10.7349
▁없군	-10.7355
▁흉내	-10.7355
차별	-10.7373
한국영화	-10.7378
▁개봉당시	-10.7381
ter	-10.7383
▁Good	-10.7384
▁시종일관	-10.7384
▁애니매이션	-10.7384
듦	-10.7384
렛	-10.7384
밉	-10.7384
뻑	-10.7384
쏴	-10.7384
캠	-10.7384
▁컨셉	-10.7384
▁드니로	-10.7384
▁몽환적	-10.7385
▁동시에	-10.7385
▁레옹	-10.7387
▁역량	-10.7387
▁고뇌	-10.7388
▁2012	-10.7388
▁케미	-10.7388
ᄀᄀ	-10.739
▁잃은	-10.739
▁알려주는	-10.7391
▁재탕	-10.7392
습니까	-10.7403
▁단순히	-10.7406
합시다	-10.7407
▁최후	-10.7408
▁역작	-10.7408
▁진지하게	-10.7409
▁놀란	-10.7409
▁속았다	-10.7414
▁싶었던	-10.7415
▁조낸	-10.7416
▁말인가	-10.7416
▁강추합니다	-10.7421
▁주온	-10.743
프로그램	-10.7431
▁부산	-10.7431
오랜만에	-10.7432
▁멋지게	-10.7439
▁않아요	-10.7442
▁준비	-10.7442
▁빠져들게	-10.7444
예술	-10.7445
▁잃었	-10.745
▁한시간	-10.7456
▁소유	-10.7458
▁중년	-10.7467
구역	-10.747
▁아이유	-10.7471
▁군인	-10.7473
▁스릴러물	-10.7478
멋진	-10.7484
물론	-10.7492
▁낮네요	-10.7496
▁아니잖아	-10.7497
▁가히	-10.75
▁다시봤는데	-10.7518
좋겠다	-10.753
▁열라	-10.7542
▁구분	-10.7545
av	-10.7547
▁웃겼	-10.7555
까봐	-10.7561
졌음	-10.7564
▁이딴거	-10.7577
▁싸우	-10.7591
구먼	-10.7618
▁가볍지	-10.7622
▁어정쩡	-10.7622
▁테이큰	-10.7622
겻	-10.7622
렘	-10.7622
렴	-10.7622
뤄	-10.7622
뿜	-10.7622
튜	-10.7622
▁클래식	-10.7622
▁리얼리티	-10.7622
▁원숭이	-10.7622
▁원피스	-10.7622
▁묵직	-10.7622
▁피아노	-10.7622
▁비호감	-10.7622
▁거부감	-10.7623
▁수면제	-10.7623
▁잔잔함	-10.7627
▁공룡	-10.7627
▁재앙	-10.7633
▁못하겠다	-10.764
▁또라이	-10.7641
분짜리	-10.7647
▁흉내내	-10.7653
▁아이들에게	-10.7659
주었다	-10.7663
▁책임	-10.7666
▁한동안	-10.7669
▁화질	-10.7675
▁-_-;;	-10.7677
샘	-10.7679
덕분에	-10.768
킬링타임	-10.7681
▁웃겨서	-10.7683
▁망쳐놓	-10.7684
범죄	-10.7686
▁조잡한	-10.7688
▁되야	-10.7693
▁지금보면	-10.7697
할수없는	-10.7699
▁화끈한	-10.7718
나오는거	-10.772
▁매주	-10.7724
좋아하는데	-10.7727
여주인공	-10.7729
▁기대했던	-10.7731
▁나한테	-10.774
해놓고	-10.7742
▁심하다	-10.7757
교회	-10.7775
역할	-10.7776
▁별로였다	-10.7776
▁공감되	-10.7792
el	-10.7795
그저	-10.7799
▁살아야	-10.7803
▁끝날	-10.7822
▁믿어	-10.7843
▁정체	-10.7855
높아	-10.7857
밋	-10.786
▁일깨워	-10.7864
▁킬링	-10.7866
썸	-10.7866
늬	-10.7866
▁뒤늦게	-10.7866
▁디카프리오	-10.7866
▁밝혀	-10.7866
▁송승헌	-10.7866
▁안타까움	-10.7866
꽁	-10.7866
뜸	-10.7866
썬	-10.7866
핫	-10.7866
홈	-10.7866
▁그냥저냥	-10.7866
왈	-10.7866
▁머릿속	-10.7866
▁감성팔이	-10.7866
▁김희선	-10.7866
▁닥치고	-10.7866
▁비행기	-10.7867
▁컬트	-10.7867
▁잊지못할	-10.7867
▁그럴싸	-10.7868
▁치밀하	-10.7868
▁크리스찬	-10.7869
▁돌아보게	-10.787
▁난해한	-10.7871
▁자연스러운	-10.7872
남긴다	-10.7875
시켰	-10.7875
▁아쉬워요	-10.7876
▁만약	-10.7876
▁내취향	-10.7876
▁혼란	-10.7878
▁실사	-10.7879
▁늙어	-10.7884
▁같았다	-10.7885
▁동화같은	-10.7887
▁마법	-10.7896
▁미스터리	-10.79
▁마블	-10.7903
부르	-10.7909
▁나올까	-10.7911
▁않았던	-10.793
▁만났	-10.7936
멀	-10.7937
시청률	-10.7937
선정	-10.7939
댓글	-10.7939
병맛	-10.7946
그럼	-10.7948
버그	-10.7951
보지마세요	-10.7953
▁그리워	-10.7961
▁남성	-10.7963
보고나서	-10.7983
▁천사	-10.7988
▁최고인듯	-10.7989
▁만들려	-10.7989
▁있었음	-10.7996
좋은데	-10.8001
실화	-10.8007
▁세상에서	-10.8012
하길래	-10.8012
▁신화	-10.8016
틀리	-10.8046
▁야하지도	-10.8067
▁좋더라	-10.8072
▁무협영화	-10.8073
▁다시보기	-10.8083
▁단점	-10.8108
딜	-10.8111
챙	-10.8113
혐	-10.8114
▁허허	-10.8114
맙	-10.8116
톡	-10.8116
펜	-10.8116
▁고등학생	-10.8116
▁영웅본색	-10.8116
뚫	-10.8116
믄	-10.8116
훼	-10.8116
▁엄정화	-10.8116
덧	-10.8116
뺏	-10.8116
팩	-10.8116
▁드래곤볼	-10.8116
▁흠잡을	-10.8116
▁후속편	-10.8116
▁봐줄만	-10.8116
▁걱정	-10.8117
▁러셀	-10.8117
▁엠마	-10.8117
▁무간도	-10.8117
▁자연스럽게	-10.8118
▁환장	-10.8119
▁전성기	-10.8119
▁섬세하	-10.812
▁극단적	-10.812
▁에라이	-10.812
▁호흡	-10.812
▁슈퍼맨	-10.8121
▁각색	-10.8122
▁거기다	-10.8123
-.-	-10.8124
▁부탁	-10.8124
▁권력	-10.8124
웃겼음	-10.813
▁보여줄	-10.8132
▁반갑	-10.8133
▁기억난다	-10.8141
▁흥미롭지	-10.8143
▁만드냐	-10.8144
▁가짜	-10.8147
▁재밌었습니다	-10.8148
▁다시보게	-10.815
잼씀	-10.815
▁알게되	-10.8162
▁멋져	-10.8172
죽이고	-10.8188
▁괜찮네요	-10.8194
나보네	-10.8197
▁꼭봐야	-10.82
칼	-10.82
▁남아있는	-10.8201
무서운	-10.8201
옛날	-10.8202
그나마	-10.8202
궁금	-10.8205
cg	-10.8212
▁잔인함	-10.8212
▁머냐	-10.8218
:)	-10.8223
▁살리지	-10.8229
웃긴	-10.8234
ᄒᄒᄒᄒᄒ	-10.8237
원주고	-10.8239
다시보고싶	-10.8241
영활	-10.8241
그대로	-10.8258
▁브레	-10.8259
▁뛰어넘	-10.8263
▁소개	-10.8266
▁알게된	-10.8273
▁베일	-10.8275
il	-10.8284
충격	-10.8288
▁불쌍하	-10.8294
해야하나	-10.8295
실력	-10.83
알바들	-10.8303
자꾸	-10.8315
▁못만들	-10.8317
순수	-10.8322
▁본듯한	-10.8322
있었는데	-10.8335
▁막판	-10.8348
뎀	-10.8372
▁캐릭	-10.8372
▁흘렸	-10.8372
셧	-10.8372
▁엔딩크레딧	-10.8372
▁호불호가	-10.8372
▁팝콘	-10.8372
▁김민종	-10.8373
▁설경구	-10.8373
▁최민수	-10.8373
▁데뷔작	-10.8373
▁왕가위	-10.8373
▁완젼	-10.8373
▁no	-10.8373
▁흥미롭게	-10.8374
▁귀찮	-10.8374
땜시	-10.8376
▁늙은	-10.8376
▁말이필요없다	-10.8376
▁파격적	-10.8377
▁찬양	-10.8377
2005	-10.8379
▁직업	-10.8379
▁멋짐	-10.838
▁억지스런	-10.838
▁개그맨	-10.838
▁과학	-10.8383
▁고인의	-10.8384
나봐요	-10.8384
▁진행되는	-10.839
▁세계관	-10.839
▁승부	-10.8391
▁멋져요	-10.8391
▁좋구	-10.8394
▁무슨말이	-10.8397
중에서도	-10.8398
▁감동적이었다	-10.8398
▁귀여워서	-10.8406
▁보는동안	-10.8407
▁봐야한다	-10.8407
▁의미있는	-10.8409
▁대결	-10.841
▁알바생	-10.8413
▁웃다가	-10.8414
보니깐	-10.8417
▁비록	-10.8417
▁상당	-10.842
날때	-10.8421
▁레오	-10.8424
할정도로	-10.8424
▁연기잘하	-10.8425
▁공연	-10.8428
▁있으나	-10.8433
▁모방	-10.8433
▁찍으	-10.8434
▁제대로된	-10.8435
느냐	-10.8435
▁있어보이	-10.8436
▁당장	-10.8437
▁강간	-10.844
~~~~~~~~~	-10.844
▁채워	-10.8442
좋겠	-10.8453
▁사람에게	-10.8454
▁맛있	-10.8457
▁봐주	-10.846
아름다운	-10.8472
▁언어	-10.8475
검사	-10.8482
폭력	-10.8484
▁논리	-10.8501
올린	-10.8501
▁커버	-10.8503
▁만들었으면	-10.8513
▁넘어서	-10.8548
▁당황	-10.8551
▁조연들	-10.8574
▁없을까	-10.8587
것같음	-10.8618
어설프	-10.863
▁잊혀	-10.8632
밨	-10.8636
혔	-10.8636
▁best	-10.8636
▁군더더기	-10.8636
▁뒤죽박죽	-10.8636
▁에드워드	-10.8636
▁즐거움	-10.8636
좆	-10.8636
짙	-10.8636
턱	-10.8636
▁아마추어	-10.8636
▁예뻐서	-10.8636
▁오그라들	-10.8636
▁키아누	-10.8636
숲	-10.8636
▁최민식	-10.8636
▁한석규	-10.8636
▁나머진	-10.8636
▁손색이	-10.8636
▁어설프게	-10.8637
><	-10.8638
▁절묘	-10.8639
▁새삼	-10.8641
창있네	-10.8641
▁욕나온다	-10.8643
▁국산	-10.8646
▁닮았	-10.8647
▁말씀	-10.8647
▁흘러가는	-10.8652
▁시간아까워	-10.8653
▁모자라	-10.8653
▁불법	-10.8654
▁초반엔	-10.8657
▁아깝습니다	-10.8662
줄알고	-10.8664
▁처음본다	-10.8664
▁채우	-10.8665
▁우승	-10.8671
▁향한	-10.8671
▁소통	-10.8672
▁매번	-10.8674
▁작화	-10.868
▁보고싶네요	-10.8684
▁재방	-10.8684
▁학생들	-10.8688
▁인류	-10.8688
▁대역	-10.869
▁이은주	-10.8691
많은것을	-10.8691
▁분장	-10.8698
▁커서	-10.8704
쓰렉	-10.8717
▁미안해	-10.8721
▁편하게	-10.8725
▁제작자	-10.8729
▁기억남	-10.8735
귀여워	-10.8747
id	-10.8749
잘봤습니다	-10.8749
첫	-10.8749
얼마나	-10.875
애니메이션	-10.875
무서워	-10.875
▁명작이네요	-10.8751
엇어요	-10.8752
▁가슴아프	-10.8753
▁쩌네	-10.8755
고싶었	-10.8756
끝내	-10.8758
tv	-10.8759
철학	-10.876
▁벌어	-10.8763
▁재수없	-10.8763
▁나왔던	-10.8768
저런	-10.8769
▁각자	-10.8772
걸린	-10.8776
재밋어요	-10.8781
큼	-10.8786
▁가능성	-10.8799
▁OOOO	-10.8836
ᄍᄍᄍ	-10.8855
▁범죄자	-10.8869
깐	-10.8888
야말로	-10.8892
둑	-10.8902
▁빵터	-10.8904
랍니다	-10.8906
▁니콜라스	-10.8906
뎁	-10.8906
뜯	-10.8906
ᄐ	-10.8906
▁겨울왕국	-10.8906
▁크레딧	-10.8906
얀	-10.8906
▁박평식	-10.8906
▁마찬가지	-10.8906
▁스페인	-10.8906
▁한쿡영화	-10.8906
▁떡밥	-10.8906
▁어딘가	-10.8906
▁고마워	-10.8906
▁지저분	-10.8906
▁농담	-10.8906
▁클라스	-10.8906
생겨서	-10.8906
▁완죤	-10.8906
▁워낙	-10.8906
hat	-10.8907
▁총체적	-10.8907
밖엔	-10.891
▁안성기	-10.8912
▁낮추	-10.8914
할게요	-10.8914
vs	-10.8915
▁시험	-10.892
▁환상적인	-10.8923
▁영광	-10.8924
▁유령	-10.8926
▁모독	-10.8927
▁잔잔하지만	-10.8928
▁빠질	-10.893
▁있기	-10.893
▁재미나게	-10.8933
▁던져	-10.894
▁나오다니	-10.8948
▁울림	-10.8954
▁어쩌면	-10.8955
흥미롭	-10.896
회부터	-10.8964
▁인연	-10.8966
▁네이버평점	-10.8969
▁또봐도	-10.8972
▁안가는	-10.8984
▁우린	-10.8986
▁받아야	-10.8987
▁않습니다	-10.8988
셨으면	-10.9001
▁정체성	-10.9003
투성이	-10.9015
▁않으면	-10.903
판타지	-10.9037
ay	-10.9045
ᄃᄃᄃᄃ	-10.9045
▁go	-10.9062
엉성	-10.9081
▁극중	-10.9088
올려	-10.9136
▁미스터	-10.9166
점만점	-10.9169
뗄	-10.9178
훌	-10.9184
킥	-10.9184
팝	-10.9184
****	-10.9184
끓	-10.9184
^_^	-10.9184
▁과대평가	-10.9184
▁박찬욱	-10.9184
▁스필버그	-10.9184
▁시끄럽	-10.9184
▁엑스맨	-10.9184
랏	-10.9184
봤을땐	-10.9184
▁구혜선	-10.9184
▁소피마르소	-10.9184
▁어설퍼	-10.9184
▁데이빗	-10.9184
▁멈추	-10.9184
▁흑역사	-10.9184
▁히어로물	-10.9184
▁온갖	-10.9185
▁택시	-10.9185
보기엔	-10.9186
▁첫번째	-10.9187
▁분량	-10.9189
▁돈낭비	-10.919
▁재방송	-10.9194
▁여태까지	-10.9196
▁오글거려서	-10.9197
▁시골	-10.9197
▁독립	-10.9198
▁실패작	-10.92
▁간직	-10.92
▁존잼	-10.9207
▁에로물	-10.9207
▁고증	-10.9208
누구	-10.9212
▁못따라	-10.9212
▁아쉬웠지만	-10.9212
▁경계	-10.9216
▁모양	-10.922
▁없구나	-10.9226
▁없애	-10.9227
▁나타나	-10.9228
▁불쌍해서	-10.9228
▁성형	-10.9232
▁필요없음	-10.9232
▁기대된다	-10.9238
▁미학	-10.9238
▁어디까지	-10.9239
▁만든건지	-10.9245
▁좋아하네요	-10.9255
▁해외	-10.9261
▁엘리	-10.9269
▁변신	-10.9288
123	-10.9318
오르는	-10.9319
달라고	-10.9324
촬영	-10.933
마무리	-10.9331
같애	-10.9332
암튼	-10.9332
모르겠다	-10.9349
성룡	-10.935
com	-10.9357
평생	-10.9362
노출	-10.9366
즐겁고	-10.9371
▁어울리	-10.9403
▁알아야	-10.9409
▁불쌍해	-10.9413
심각	-10.942
것인지	-10.9427
♡♡	-10.9435
▁깨닫	-10.9439
보여서	-10.944
낚였	-10.9449
▁중학교	-10.9454
▁오랜	-10.9456
▁굳굳	-10.9467
냄	-10.9468
밍	-10.9469
▁도라에몽	-10.9469
▁러브라인	-10.9469
▁이탈리아	-10.9469
겄	-10.9469
륵	-10.9469
팽	-10.9469
▁미스테리	-10.9469
삘	-10.9469
칫	-10.9469
헨	-10.9469
습니당	-10.9469
▁객관적	-10.9469
▁레이첼	-10.9469
▁엽문	-10.947
▁페이크	-10.947
▁외로움	-10.947
▁다니엘	-10.947
▁민족	-10.9473
▁죽기전에	-10.9473
▁람보	-10.9476
▁과장된	-10.9479
▁철저	-10.948
▁아무튼	-10.9481
▁사이코	-10.9482
▁중반부터	-10.9483
▁피곤	-10.9485
▁뒤집	-10.9486
▁떠오르는	-10.9486
▁경악	-10.9489
♡♡♡	-10.9492
▁어렸을적	-10.9494
▁백배	-10.9496
▁모순	-10.9496
▁적극	-10.9498
▁카피	-10.9498
▁힘들었다	-10.95
▁미술	-10.95
▁되었습니다	-10.9504
▁식상하다	-10.9505
질질끄	-10.9506
▁지옥	-10.9506
행위	-10.9519
사람마다	-10.9519
▁발레	-10.9528
▁남아있	-10.9559
▁풀어내	-10.9597
▁등장하는	-10.962
썩	-10.9631
왜이래	-10.9631
짧	-10.9631
특유의	-10.9632
우리나라	-10.9636
네이버	-10.9637
남매	-10.9639
다시봐도	-10.9647
영웅	-10.9651
될까	-10.9656
▁소름끼치	-10.9683
▁없으니	-10.9703
룬	-10.9745
봇	-10.9762
삽	-10.9763
▁트랜스포머	-10.9764
졋	-10.9764
푼	-10.9764
Y	-10.9764
▁드림웍스	-10.9764
▁러브스토리	-10.9764
▁슬펐다	-10.9764
궈	-10.9764
뼈	-10.9764
쌓	-10.9764
▁세련된	-10.9764
▁심리묘사	-10.9764
▁차태현	-10.9764
쉣	-10.9764
▁사무라이	-10.9764
▁황정민	-10.9764
▁김태희	-10.9764
▁손예진	-10.9764
▁이것저것	-10.9764
▁권상우	-10.9764
탁월한	-10.9764
▁정주행	-10.9764
▁깜놀	-10.9764
▁펼쳐	-10.9764
▁다세포소녀	-10.9764
▁2004	-10.9764
▁보낸다	-10.9764
뜨거운	-10.9764
▁2003	-10.9764
▁틀림없	-10.9764
▁콜린	-10.9764
▁무서울	-10.9764
▁스킵	-10.9764
▁젊음	-10.9764
▁거기서	-10.9765
▁쏘우	-10.9765
▁슬퍼요	-10.9766
어지럽	-10.9766
▁말아먹은	-10.9768
▁생존	-10.9773
▁서극	-10.9775
▁꺼져	-10.9776
▁발랄	-10.9777
▁커피	-10.9777
▁공허	-10.9778
점도아깝다	-10.9782
▁재밌기만	-10.9783
▁복선	-10.9788
▁감동적임	-10.9789
▁적당하다	-10.9794
▁더욱더	-10.9796
▁회상	-10.9802
▁나은듯	-10.9803
▁드물	-10.9808
▁극본	-10.9812
▁잼나요	-10.9814
▁향기	-10.9822
▁로마	-10.9824
▁재미있어서	-10.983
▁다가오	-10.9854
-_	-10.988
▁스릴감	-10.9907
취향	-10.9937
때메	-10.9937
퇴	-10.9941
쫌	-10.9944
그래픽	-10.9945
결혼	-10.9949
하지않고	-10.995
중딩	-10.9954
유쾌	-10.9957
팬이라	-10.9965
▁산만하	-10.9969
▁시간아깝	-11.0022
재미잇	-11.0032
▁다음편	-11.0041
고싶지	-11.0049
댓	-11.0065
풋	-11.0066
뚜	-11.0067
탠	-11.0067
▁굉장한	-11.0067
▁어쨌든	-11.0067
▁윌리엄	-11.0067
▁인상깊게	-11.0067
녁	-11.0067
잣	-11.0067
▁국어책	-11.0067
앜	-11.0067
▁웬만하면	-11.0067
▁더더욱	-11.0067
▁어차피	-11.0067
▁오우삼	-11.0067
떄문에	-11.0067
부끄러운	-11.0067
▁윌리스	-11.0067
▁장동건	-11.0067
▁픽션	-11.0067
▁아바타	-11.0067
스러울	-11.0067
▁납치	-11.0067
▁전지현	-11.0067
▁심오한	-11.0067
▁미친듯이	-11.0068
▁사기꾼	-11.0068
파이팅	-11.0068
▁7.5	-11.0068
▁거듭	-11.0068
▁증명	-11.0068
ᄂᄂ	-11.007
▁2015	-11.007
▁담담하	-11.0076
▁웃으며	-11.0077
▁197	-11.0077
▁태양	-11.0079
▁복수극	-11.0079
▁허탈	-11.0083
▁지루했음	-11.0085
▁노튼	-11.0086
▁소품	-11.0088
▁마틴	-11.0088
▁돈아깝다	-11.0094
▁울었습니다	-11.01
▁일찍	-11.0101
▁볼만했는데	-11.0103
▁재미없었음	-11.0103
▁짜증났	-11.0109
▁소소하	-11.0112
작렬	-11.0117
싶을때	-11.0123
▁유치하기	-11.0129
▁만세	-11.0132
▁다시보고싶은	-11.0163
▁형식	-11.018
▁따뜻함	-11.0249
힘든	-11.028
배틀	-11.0283
몇번	-11.0309
뜩	-11.0378
흉	-11.0378
드래곤	-11.0379
윽	-11.0379
↓	-11.0379
▁ebs	-11.0379
펠	-11.0379
▁런닝타임	-11.0379
▁엉터리	-11.0379
▁톰크루즈	-11.0379
▁파워레인저	-11.0379
▁학창시절	-11.0379
뱅	-11.0379
zzz	-11.0379
▁엉망진창	-11.0379
넷	-11.0379
▁다이하드	-11.0379
▁가슴아픈	-11.0379
▁아프리카	-11.0379
찜찜	-11.0379
▁색다르	-11.0379
▁어떠한	-11.0379
▁오페라	-11.0379
▁의외의	-11.0379
▁모자란	-11.038
▁지브리	-11.038
기승전	-11.038
▁돋보인다	-11.0381
▁전도연	-11.0381
▁8.5	-11.0381
▁증말	-11.0382
▁보여줌	-11.0382
▁눈요기	-11.0382
징그러	-11.0383
배속으로	-11.0383
▁초등학교때	-11.0389
▁패션	-11.0389
꼬라지	-11.039
십니다	-11.0394
▁반응	-11.0394
▁출발	-11.0395
▁중간부터	-11.0398
것같습니다	-11.0398
▁음향	-11.0399
▁알려준	-11.0401
▁남자라면	-11.0405
▁느껴질	-11.0406
▁인간적으로	-11.0413
▁터지는	-11.0416
아프고	-11.0417
▁도통	-11.0424
▁터져	-11.0426
CGV	-11.0458
▁질리지않	-11.0467
바탕	-11.0479
▁살아남	-11.0502
▁데려다	-11.0506
▁퇴보	-11.0508
만들엇	-11.0513
▁진정성	-11.0553
필요없	-11.0577
ever	-11.0579
▁환상적이	-11.0593
▁낚였네	-11.0595
톰	-11.0598
선생님	-11.0599
흥미를	-11.0603
볼때마다	-11.0611
대단히	-11.0623
▁역겹	-11.0641
▁어린이들	-11.0681
믹	-11.0698
긍	-11.0702
릅	-11.0702
썰	-11.0702
릉	-11.0702
욬	-11.0702
웰	-11.0702
줫	-11.0702
훗	-11.0702
▁말았어야	-11.0702
▁미야자키	-11.0702
▁신데렐라	-11.0702
▁아이언맨	-11.0702
▁카메론	-11.0702
▁펭귄	-11.0702
뎌	-11.0702
▁양동근	-11.0702
▁간간히	-11.0702
▁깨달음	-11.0702
▁고마운	-11.0702
▁김명민	-11.0702
▁납득	-11.0702
▁여기저기	-11.0702
▁조승우	-11.0702
▁하이킥	-11.0702
▁찬사를	-11.0702
▁임청하	-11.0702
▁ᄇᄉ	-11.0702
▁큐브	-11.0702
▁뉴욕	-11.0702
▁엉엉	-11.0702
▁성유리	-11.0702
▁솔까	-11.0702
▁거슬리	-11.0702
▁일어날	-11.0703
▁끊임없	-11.0703
▁사라져	-11.0703
깁니다	-11.0704
▁일깨워주는	-11.0704
▁색채	-11.0705
▁사라진	-11.0705
▁가끔씩	-11.0706
▁감동적이었습니다	-11.0708
▁모르겟다	-11.0709
▁이민기	-11.071
▁잃어	-11.0712
▁존경합니다	-11.0712
▁지루했어요	-11.0713
▁좋아하시는	-11.0714
▁에릭	-11.0714
였으나	-11.0715
▁절실	-11.0715
▁제정신	-11.0715
▁있겠지만	-11.0716
▁좋아한다면	-11.0716
▁치료	-11.0718
▁번역	-11.0718
영화관에서	-11.0719
▁드문	-11.072
▁총알	-11.0721
▁뭐랄까	-11.0722
▁대실망	-11.0726
▁원표	-11.0727
▁중학교때	-11.0736
▁고문	-11.0743
삶은	-11.0744
▁늙었	-11.0744
역활	-11.0773
▁볼거없	-11.0777
지않을	-11.0778
▁어린이용	-11.0779
짱짱짱	-11.0785
볼걸	-11.0793
▁만날	-11.0818
▁유혹	-11.0821
▁머리속	-11.0841
▁진부함	-11.0848
▁초중반	-11.085
▁198	-11.0879
페이지	-11.0916
깎	-11.0943
느와르	-11.0945
좋았음	-11.0945
한마디로	-11.0945
완벽	-11.0949
ᄉᄇ	-11.0949
시간낭비	-11.095
아이돌	-11.0955
제작비	-11.0959
알수있	-11.0969
▁wa	-11.0977
즌	-11.1019
재밋게봣	-11.1022
낌	-11.1033
▁ocn	-11.1035
▁프레디	-11.1035
잎	-11.1035
▁서프라이즈	-11.1035
▁일베충	-11.1035
▁임권택	-11.1035
▁흐지부지	-11.1035
人	-11.1035
곁	-11.1035
긔	-11.1035
꺄	-11.1035
딕	-11.1035
룸	-11.1035
텅	-11.1035
▁다크나이트	-11.1035
▁재발견	-11.1035
갇	-11.1035
겸	-11.1035
뉘	-11.1035
ᅦ	-11.1035
▁스티브	-11.1035
▁송지효	-11.1035
▁싸이코패스	-11.1035
▁주상욱	-11.1035
▁불면증	-11.1035
넼	-11.1035
▁신세경	-11.1035
▁인디아나	-11.1035
▁잘만들어진	-11.1035
▁구역질	-11.1035
▁이연희	-11.1035
▁엑소	-11.1036
▁감수성	-11.1036
^.^	-11.1036
▁아까웠던	-11.1036
▁The	-11.1036
▁가까이	-11.1036
▁록키	-11.1036
귀요미	-11.1037
▁잃어버린	-11.1037
▁압도적	-11.1038
▁강아지	-11.1038
▁경의를	-11.1039
▁담백하	-11.1041
▁잔인하기만	-11.1042
▁역쉬	-11.1044
▁이나영	-11.1046
▁요약	-11.1051
▁몰락	-11.1051
▁볼만해요	-11.1053
▁케이지	-11.1053
▁신세계	-11.1054
▁소중하	-11.1069
▁사랑스럽	-11.1071
▁억지설정	-11.1077
클럽	-11.1078
▁어린아이	-11.1092
분들께	-11.1095
영화자체는	-11.1108
개인적	-11.1143
채널에서	-11.1182
▁기억될	-11.1281
잭	-11.13
왜이리	-11.1307
이쁘고	-11.1308
중반부	-11.1349
떠오르	-11.1367
뿔	-11.1371
뷔	-11.138
펼	-11.138
옵	-11.138
셉	-11.138
▁오그라든다	-11.138
▁KBS	-11.138
▁MBC	-11.138
▁내러티브	-11.138
▁매트릭스	-11.138
▁묻어나는	-11.138
▁스칼렛	-11.138
▁팀버튼	-11.138
쏙	-11.138
웩	-11.138
켈	-11.138
▁끝판왕	-11.138
▁송혜교	-11.138
▁클린트	-11.138
됴	-11.138
썻	-11.138
▁환타지	-11.138
▁달콤한	-11.138
▁어둡고	-11.138
▁애국심	-11.138
그나저나	-11.138
▁2013	-11.138
▁나루토	-11.138
▁조용히	-11.138
▁영향을	-11.138
▁함부로	-11.138
▁작위적이	-11.138
▁ᄅᄋ	-11.138
▁불후의	-11.138
▁비정상	-11.138
▁서부영화	-11.138
▁일요일	-11.138
▁그들만의	-11.1381
▁더럽다	-11.1381
▁플레이	-11.1381
▁다운로드	-11.1381
▁2001	-11.1381
▁이범수	-11.1381
▁비현실적이	-11.1381
▁케이트	-11.1381
@@	-11.1382
▁온몸	-11.1382
▁알게해준	-11.1384
▁이름값	-11.1384
▁갖춘	-11.1384
▁낚여서	-11.1385
▁심각한	-11.1386
▁구멍	-11.1387
▁어딜	-11.1387
▁빠져드는	-11.1388
왜이럼	-11.1388
▁지나친	-11.1389
▁느리고	-11.1389
▁산만한	-11.1392
마인드	-11.1392
노동자	-11.1394
점대라니	-11.1394
▁me	-11.1399
헤헤	-11.1403
▁실화라니	-11.1411
모델	-11.1454
▁광팬	-11.1465
편견을	-11.1499
지않나	-11.1548
▁이해되	-11.1548
재미가없	-11.1578
낙	-11.167
첩	-11.1734
깁	-11.1734
봅	-11.1734
펑	-11.1737
쯧	-11.1737
쿡	-11.1737
짬	-11.1737
헝	-11.1737
샀	-11.1737
☆	-11.1737
됌	-11.1737
둬	-11.1737
럿	-11.1737
벙	-11.1737
톨	-11.1737
펄	-11.1737
훔	-11.1737
엌	-11.1737
끗	-11.2107
#	-11.2107
띵	-11.2107
쏠	-11.2107
핳	-11.2107
둡	-11.2107
껍	-11.2107
펴	-11.2107
Z	-11.2107
맷	-11.2107
밸	-11.2107
쌩	-11.2107
횽	-11.2107
쇠	-11.2107
펀	-11.2107
q	-11.2107
젼	-11.247
쎄	-11.2491
흰	-11.2492
꿨	-11.2492
댐	-11.2492
샹	-11.2492
숫	-11.2492
빤	-11.2492
싫	-11.2613
쵝	-11.2892
깡	-11.2892
췄	-11.2892
묶	-11.2892
쫙	-11.2892
ᄑ	-11.2892
뱉	-11.2892
쉰	-11.2892
듀	-11.2892
W	-11.3307
캬	-11.3307
낳	-11.3308
륙	-11.3309
뇨	-11.3309
댕	-11.3309
멕	-11.3309
뺀	-11.3309
쑤	-11.3309
쒸	-11.3309
콕	-11.3309
핏	-11.3309
。	-11.3309
꾹	-11.3309
텀	-11.3309
ᅭ	-11.3743
룹	-11.3743
솟	-11.3743
쌈	-11.3743
욜	-11.3743
젓	-11.3743
캅	-11.3743
햄	-11.3743
흙	-11.3743
엎	-11.3743
팡	-11.3743
뻘	-11.3743
○	-11.3743
넌	-11.3761
꽝	-11.3762
꽤	-11.3764
죤	-11.4197
쌤	-11.4198
ᆞ	-11.4198
샬	-11.4198
칩	-11.4198
힛	-11.4198
댈	-11.4198
탔	-11.4198
탭	-11.4198
쌔	-11.4198
홉	-11.4198
햐	-11.4198
웬	-11.4238
률	-11.4674
왼	-11.4674
’	-11.4674
눠	-11.4674
닦	-11.4674
쌀	-11.4674
엣	-11.4674
괘	-11.4674
킷	-11.4674
[	-11.4738
짠	-11.4739
뭇	-11.5173
냅	-11.5174
뒀	-11.5174
앳	-11.5174
얕	-11.5174
얹	-11.5174
웁	-11.5174
췌	-11.5174
\	-11.5174
떳	-11.5174
썅	-11.5174
씌	-11.5174
욧	-11.5174
깬	-11.5174
엥	-11.5174
끊	-11.5265
썽	-11.57
즉	-11.57
쪄	-11.57
굼	-11.57
꺅	-11.57
꽂	-11.57
낱	-11.57
늠	-11.57
밭	-11.57
샷	-11.57
켠	-11.57
툰	-11.57
ᅣ	-11.57
쩡	-11.6255
륭	-11.6256
·	-11.6256
뎈	-11.6256
몹	-11.6256
셸	-11.6256
깽	-11.6256
뛴	-11.6256
롬	-11.6256
짖	-11.6256
쨩	-11.6256
퍽	-11.6256
갤	-11.6256
쟝	-11.6256
촉	-11.6256
윙	-11.6256
푹	-11.6409
훅	-11.6844
겜	-11.6844
꿋	-11.6844
됀	-11.6844
딥	-11.6844
땟	-11.6844
떴	-11.6844
뤽	-11.6844
붓	-11.6844
웡	-11.6844
붐	-11.6844
얌	-11.6844
얔	-11.6844
싯	-11.6844
힝	-11.6844
돠	-11.6844
녹	-11.7032
훨	-11.7033
뭥	-11.7469
찜	-11.7469
뮬	-11.7469
좁	-11.7469
쿤	-11.7469
퀘	-11.7469
乃	-11.7469
댔	-11.7469
댜	-11.7469
룻	-11.7469
뺐	-11.7469
쁠	-11.7469
샴	-11.7469
섰	-11.7469
씽	-11.7469
젬	-11.7469
쵸	-11.7469
큘	-11.7469
갸	-11.7469
짭	-11.7469
팜	-11.7469
헬	-11.7699
캔	-11.8135
첼	-11.8136
힙	-11.8136
ᅧ	-11.8136
젝	-11.8136
킁	-11.8136
♬	-11.8136
덥	-11.8136
뭍	-11.8136
셰	-11.8136
쉘	-11.8136
욯	-11.8136
곸	-11.8136
쑈	-11.8136
퀼	-11.8136
맡	-11.8414
듭	-11.8843
낄	-11.8849
|	-11.885
“	-11.885
”	-11.885
겔	-11.885
꾀	-11.885
꿉	-11.885
뜰	-11.885
뤘	-11.885
믓	-11.885
빔	-11.885
챔	-11.885
캣	-11.885
텍	-11.885
Q	-11.885
밈	-11.885
슥	-11.885
욘	-11.885
읎	-11.885
좃	-11.885
짚	-11.885
쾅	-11.885
빽	-11.885
곧	-11.9182
얻	-11.9184
헷	-11.9619
넝	-11.9619
無	-11.9619
됏	-11.9619
휼	-11.9619
걔	-11.9619
뱃	-11.9619
얍	-11.9619
잰	-11.9619
춥	-11.9619
훤	-11.9619
맬	-11.9619
뵈	-11.9619
헛	-12.0017
쩐	-12.0387
켰	-12.0421
걱	-12.0451
늑	-12.0451
꼐	-12.0453
넥	-12.0453
윗	-12.0453
쳇	-12.0453
텨	-12.0453
퉷	-12.0453
→	-12.0453
甲	-12.0453
겅	-12.0453
꿰	-12.0453
눅	-12.0453
벡	-12.0453
숴	-12.0453
융	-12.0453
졷	-12.0453
쪙	-12.0453
찼	-12.0453
칵	-12.0453
퐁	-12.0453
흣	-12.0453
뵙	-12.0453
횡	-12.0453
촬	-12.1357
슐	-12.1362
팰	-12.1362
뤠	-12.1362
괄	-12.1362
굽	-12.1362
끽	-12.1362
뷁	-12.1362
쏜	-12.1362
죵	-12.1362
첸	-12.1362
헿	-12.1362
넉	-12.1362
뎃	-12.1362
돔	-12.1362
욥	-12.1362
잌	-12.1362
콥	-12.1362
캄	-12.1362
쨔	-12.1362
뒷	-12.1927
땜	-12.2256
닛	-12.2362
쫘	-12.2362
깟	-12.2362
뒈	-12.2362
렜	-12.2362
멧	-12.2362
볶	-12.2362
뿅	-12.2362
뿍	-12.2362
샵	-12.2362
썹	-12.2362
풉	-12.2362
死	-12.2362
{	-12.3473
}	-12.3473
곀	-12.3473
꽈	-12.3473
멱	-12.3473
쮸	-12.3473
컵	-12.3473
ᄈ	-12.3473
♪	-12.3473
괸	-12.3473
뇬	-12.3473
컹	-12.3473
펭	-12.3473
햅	-12.3473
⌒	-12.3473
갚	-12.3473
냔	-12.3473
댁	-12.3473
륨	-12.3473
벳	-12.3473
콱	-12.3473
뻗	-12.3473
쒯	-12.3473
女	-12.3473
밓	-12.3473
갘	-12.3473
킵	-12.4719
컥	-12.472
껑	-12.4723
뒹	-12.4723
섀	-12.4723
웹	-12.4723
쥰	-12.4723
作	-12.4723
넛	-12.4723
넴	-12.4723
믈	-12.4723
챦	-12.4723
쳣	-12.4723
쿼	-12.4723
$	-12.4723
ᆪ	-12.4723
넨	-12.4723
딛	-12.4723
떙	-12.4723
떵	-12.4723
쎈	-12.4723
쨰	-12.4723
팟	-12.4723
냠	-12.4723
뿡	-12.4723
캘	-12.4723
줏	-12.4723
낍	-12.4723
ン	-12.4723
뫼	-12.6151
녜	-12.6151
랖	-12.6151
왁	-12.6151
롸	-12.6151
앟	-12.6151
궤	-12.6152
놉	-12.6152
뭄	-12.6152
벵	-12.6152
읏	-12.6152
쭝	-12.6152
촐	-12.6152
캉	-12.6152
팁	-12.6152
헥	-12.6152
홬	-12.6152
휙	-12.6152
갯	-12.6152
뤼	-12.6152
뮈	-12.6152
뺑	-12.6152
뽐	-12.6152
읭	-12.6152
찟	-12.6152
앰	-12.6152
촤	-12.6152
팥	-12.6152
옛	-12.738
し	-12.7818
빴	-12.7818
ᄄ	-12.7818
─	-12.7818
넙	-12.7818
띨	-12.7818
먀	-12.7818
샨	-12.7818
셩	-12.7818
숏	-12.7818
盧	-12.7818
끅	-12.7818
몃	-12.7818
뺄	-12.7818
쌌	-12.7818
옌	-12.7818
옼	-12.7818
웜	-12.7818
잦	-12.7818
찹	-12.7818
됄	-12.7818
룽	-12.7818
멌	-12.7818
뽄	-12.7818
옄	-12.7818
슝	-12.7818
곘	-12.7818
놧	-12.7818
졉	-13.5496
읊	-13.5497
랔	-13.5498
뛸	-13.5499
덟	-13.55
궂	-13.5501
굶	-13.5501
̄	-13.5503
츈	-13.5504
촛	-13.5505
챤	-13.5506
쫀	-13.5507
짰	-13.5508
옅	-13.5508
썪	-13.551
벚	-13.5511
껌	-13.5512
햌	-13.5513
짘	-13.5514
죨	-13.5515
좔	-13.5515
윅	-13.5517
왘	-13.5518
땔	-13.5519
뉜	-13.552
냨	-13.5521
꺠	-13.5522
괭	-13.5522
故	-13.5524
훑	-13.5525
쌉	-13.5526
숟	-13.5527
뀜	-13.5528
깼	-13.5529
헴	-13.5529
툴	-13.5531
쥑	-13.5532
잴	-13.5533
앍	-13.5534
샛	-13.5535
덱	-13.5536
닠	-13.5536
휠	-13.5538
홥	-13.5539
헠	-13.554
츤	-13.5541
촘	-13.5542
쫑	-13.5543
쁩	-13.5543
뀔	-13.5545
휩	-13.5546
핥	-13.5547
폄	-13.5548
큽	-13.5549
옜	-13.555
릎	-13.555
꺾	-13.5552
긁	-13.5553
괞	-13.5554
딪	-13.5555
횟	-13.5556
쥔	-13.5557
쟤	-13.5557
샐	-13.5559
멎	-13.556
뚤	-13.5561
핡	-13.5562
굵	-13.5563
꺽	-13.5564
핍	-13.5564
뺴	-13.5566
녔	-13.5567
낰	-13.5568
낡	-13.5569
꼼	-13.557
슌	-13.5571
펏	-13.5571
씻	-13.5573
‘	-13.5574
돕	-13.5575
꽥	-13.5576
쫒	-13.5577
닳	-13.5578
귓	-13.5578
픕	-13.558
쬐	-13.5581
뺨	-13.5582
넓	-13.5583
쿄	-13.5584
얽	-13.5585
뀌	-13.5585
쨋	-13.5585
딨	-13.5587
빚	-13.5588
뭡	-13.5589
넋	-13.559
꼇	-13.5591
앓	-13.5592
뀐	-13.5592
밟	-13.5594
붉	-13.5595
멤	-13.5596
꽉	-13.5597
홧	-13.5598
솜	-13.5599
땠	-13.5599
귄	-13.5601
웍	-13.5602
쭈	-13.5603
핸	-13.5604
둠	-13.5605
틋	-13.5606
뻣	-13.5606
컸	-13.5608
맺	-13.5609
맑	-13.561
찢	-13.5611
찔	-13.5612
쨌	-13.5613
겪	-13.5613
팠	-13.5615
빕	-13.5616
쫄	-13.5617
틸	-13.5618
띄	-13.5619
텝	-13.562
닙	-13.562
콧	-13.5622
껐	-13.5623
쏟	-13.5624
딧	-13.5625
왤	-13.5626
뻤	-13.5627
꿔	-13.5627
튀	-13.5628
섞	-13.563
펐	-13.5631
슷	-13.5631
겉	-13.5632
획	-13.5633
밝	-13.5634
줍	-13.5634
됩	-13.5635
쁨	-13.5637
늦	-13.5638
볍	-13.5639
찝	-13.564
묻	-13.5641
굉	-13.5641
똑	-13.5642
읽	-13.5644
랐	-13.5645
떻	-13.5646
깊	-13.5647
렸	-13.5648
렇	-13.5648
았	-13.5649
밌	-13.5651
퀀	-13.5651
봤	-13.5652
탤	-13.5652
