<unk>	0
<s>	0
</s>	0
▁	-3.15166
.	-3.47577
..	-4.31125
이	-4.42579
▁영화	-4.493
...	-4.54182
가	-4.70918
의	-4.72431
도	-4.80629
는	-4.8369
,	-5.0162
을	-5.05529
에	-5.08989
고	-5.11979
다	-5.14943
은	-5.21467
지	-5.28272
?	-5.32193
한	-5.42882
!	-5.47583
▁너무	-5.48305
를	-5.5906
▁정말	-5.60422
만	-5.60726
▁이	-5.71405
로	-5.73947
게	-5.74975
나	-5.79181
~	-5.79484
▁진짜	-5.80887
영화	-5.81291
어	-5.99657
과	-6.01459
기	-6.02698
라	-6.08501
리	-6.11009
점	-6.11018
네	-6.12733
아	-6.13788
인	-6.17361
하고	-6.20851
▁안	-6.25008
으로	-6.26253
▁잘	-6.27816
!!	-6.28766
....	-6.30257
▁1	-6.30802
서	-6.31713
▁왜	-6.33088
요	-6.34929
에서	-6.3503
와	-6.35734
들	-6.35918
▁그	-6.37953
▁이런	-6.40206
해	-6.40694
▁더	-6.41593
▁아	-6.41816
스	-6.46311
▁다	-6.46944
네요	-6.47325
▁수	-6.47713
자	-6.50417
▁그냥	-6.5236
하는	-6.53006
거	-6.53272
▁본	-6.57706
음	-6.59556
▁드라마	-6.60053
▁10	-6.61282
면	-6.62521
지만	-6.62819
수	-6.66399
니	-6.67288
함	-6.68229
하	-6.69144
▁보고	-6.70087
대	-6.70267
▁평점	-6.70796
▁연기	-6.72803
▁내	-6.72897
시	-6.75255
야	-6.76809
▁최고	-6.78856
하다	-6.82102
▁좀	-6.8219
사	-6.82629
이다	-6.82788
▁ᄏᄏ	-6.83321
일	-6.83405
▁쓰레기	-6.83891
하게	-6.84283
진	-6.84357
▁최고의	-6.85526
▁한	-6.85676
여	-6.85961
▁이거	-6.87234
▁영화를	-6.8753
▁참	-6.8841
주	-6.8883
▁봤는데	-6.89096
미	-6.90693
▁완전	-6.9112
우	-6.91524
데	-6.9207
는데	-6.92112
보	-6.92654
▁없다	-6.92971
보다	-6.93009
!!!	-6.94033
구	-6.94195
▁없는	-6.95125
안	-6.9555
▁못	-6.95563
임	-6.9563
ᄏᄏ	-6.95859
드	-6.95912
▁스토리	-6.97424
성	-6.97926
▁이건	-6.98946
▁내가	-6.99796
할	-7.00204
▁2	-7.01657
냐	-7.01955
▁개	-7.02529
▁영화가	-7.02963
▁영화는	-7.03234
▁좋은	-7.04255
▁이게	-7.04455
까지	-7.05281
듯	-7.05514
들이	-7.06429
^^	-7.07786
▁있는	-7.07989
정	-7.08297
신	-7.08417
해서	-7.09559
던	-7.10277
▁보는	-7.11861
▁난	-7.11972
▁이렇게	-7.12131
상	-7.12579
장	-7.12639
▁3	-7.12913
▁다시	-7.13218
ᄏ	-7.13693
▁나	-7.13849
중	-7.14607
적	-7.15208
~~	-7.16476
보고	-7.17683
▁평점이	-7.17827
▁것	-7.18811
부	-7.19004
트	-7.19389
러	-7.19536
치	-7.20031
▁재밌게	-7.2051
려	-7.21316
마	-7.21991
오	-7.22056
▁역시	-7.22446
전	-7.22973
▁말	-7.23935
▁넘	-7.24521
▁뭐	-7.24895
1	-7.24904
랑	-7.2559
화	-7.2615
건	-7.26655
비	-7.27186
개	-7.27911
습니다	-7.28203
▁별로	-7.28555
▁오	-7.28734
▁많이	-7.28765
분	-7.29359
세	-7.29873
▁재미	-7.29995
그	-7.3031
물	-7.31113
▁작품	-7.31241
▁감동	-7.31476
;;	-7.32032
▁볼	-7.32427
원	-7.32874
▁지	-7.3289
히	-7.33244
년	-7.33699
질	-7.33806
▁전	-7.33822
내	-7.35046
인데	-7.35499
▁보	-7.36859
??	-7.36884
▁아깝다	-7.37598
소	-7.39599
▁마지막	-7.39887
적인	-7.40151
2	-7.40237
▁저	-7.40323
했다	-7.40704
용	-7.41156
▁무	-7.41374
▁꼭	-7.41514
라고	-7.41815
▁ᄏᄏᄏ	-7.42026
▁또	-7.42033
때	-7.42177
▁별	-7.44808
진짜	-7.45068
감	-7.45691
▁하	-7.45824
급	-7.46022
▁액션	-7.47789
어요	-7.4838
같은	-7.48493
입니다	-7.49612
▁감독	-7.49676
▁가장	-7.49682
것	-7.49789
▁시간	-7.50057
ᅲᅲ	-7.50065
▁생각	-7.50156
하지	-7.50284
▁하나	-7.50305
ᄏᄏᄏ	-7.50444
▁주	-7.50496
▁명작	-7.50982
식	-7.51307
'	-7.52504
말	-7.52585
더	-7.53072
제	-7.53798
본	-7.53911
▁기대	-7.54068
▁그리고	-7.54126
▁이야기	-7.54349
무	-7.54422
선	-7.5485
줄	-7.55415
영	-7.55604
디	-7.55905
▁ᄏ	-7.55945
▁없고	-7.56344
▁지금	-7.56724
▁하는	-7.56738
걸	-7.57532
▁짱	-7.57831
편	-7.57953
;	-7.58025
너무	-7.58563
▁김	-7.59101
좀	-7.5945
드라마	-7.59735
▁보면	-7.60097
▁비	-7.60151
▁무슨	-7.60485
란	-7.60597
동	-7.60718
▁사	-7.60845
호	-7.6102
으면	-7.61407
르	-7.62115
▁정	-7.62146
▁조	-7.62341
▁ᅲᅲ	-7.62495
긴	-7.62583
작	-7.62617
군	-7.62961
씨	-7.63186
이나	-7.64402
조	-7.64516
▁한국	-7.64642
▁사랑	-7.64848
없는	-7.64984
▁다른	-7.65268
▁아니	-7.65859
▁배우	-7.65966
ᅲ	-7.66085
▁만든	-7.66357
▁미	-7.66724
▁할	-7.66735
▁중	-7.67032
▁말이	-7.67385
▁처음	-7.67395
▁ᅳᅳ	-7.67402
남	-7.67499
▁느낌	-7.67599
▁유	-7.67778
▁신	-7.6822
있는	-7.68441
된	-7.68849
)	-7.69709
정말	-7.7
위	-7.70218
부터	-7.70535
▁좋아	-7.70747
유	-7.71319
▁좋다	-7.71375
▁기	-7.71538
라는	-7.71549
▁대	-7.71596
울	-7.72062
▁재밌다	-7.72107
모	-7.72122
당	-7.72335
연	-7.73436
▁굿	-7.73562
▁일본	-7.7392
한다	-7.74272
▁돈	-7.74671
▁영화다	-7.74718
▁내용	-7.74836
운	-7.74861
▁와	-7.74975
레	-7.75104
타	-7.75543
간	-7.757
▁두	-7.75727
▁일	-7.75753
▁연출	-7.75875
래	-7.7593
3	-7.76136
바	-7.76742
크	-7.77134
명	-7.77209
에게	-7.77238
두	-7.77654
▁마	-7.77872
심	-7.78
난	-7.78091
▁끝까지	-7.7829
▁어	-7.78687
준	-7.79338
▁ᄒᄒ	-7.79778
▁자	-7.79988
ᅳᅳ	-7.80728
들의	-7.81982
워	-7.82101
▁있다	-7.82116
▁남	-7.8225
린	-7.82332
류	-7.82968
죠	-7.8319
▁솔직히	-7.83246
▁봐도	-7.83442
▁봤다	-7.83654
,,	-7.8416
판	-7.84201
노	-7.84293
▁같은	-7.84527
▁재미없다	-7.84656
▁최악	-7.84823
▁뭔가	-7.85141
살	-7.85272
▁제	-7.85567
▁재미있게	-7.85688
▁인생	-7.86196
▁아주	-7.86589
프	-7.86771
▁대박	-7.8703
연기	-7.87384
▁알	-7.87395
▁거	-7.88011
되는	-7.88028
희	-7.88317
길	-7.88678
발	-7.88709
잘	-7.88722
단	-7.88922
▁코미디	-7.89195
경	-7.89426
▁때	-7.89448
▁여자	-7.89566
합니다	-7.89708
루	-7.89751
까	-7.89783
재	-7.89943
▁시	-7.9019
▁이영화	-7.90345
▁전혀	-7.90508
었다	-7.90962
처럼	-7.91216
▁최악의	-7.91233
▁이걸	-7.91267
▁'	-7.91492
인지	-7.91638
하나	-7.91796
▁같다	-7.91813
했던	-7.91935
인가	-7.92501
▁한번	-7.93617
저	-7.93879
으	-7.94562
생	-7.95058
▁장	-7.95077
엔	-7.95252
▁해	-7.95377
▁하지만	-7.95452
때문에	-7.95582
시간	-7.95785
▁대한	-7.95811
방	-7.96127
▁애	-7.96541
민	-7.97004
▁구	-7.97268
이랑	-7.97296
하지만	-7.9732
봤는데	-7.97391
▁내용이	-7.97519
▁부	-7.97676
번	-7.97733
피	-7.98058
▁모두	-7.98524
▁바	-7.98539
면서	-7.98628
하면	-7.98695
▁줄	-7.98796
ᄒᄒ	-7.9888
님	-7.98987
▁소	-7.99182
하네	-7.99864
(	-7.99945
-	-8.00299
없다	-8.00458
국	-8.00655
▁사람	-8.00994
며	-8.01302
▁계속	-8.01381
▁후	-8.01403
박	-8.0145
▁4	-8.01577
티	-8.02046
점도	-8.0209
든	-8.02095
10	-8.02203
림	-8.0226
▁아니라	-8.02335
▁많은	-8.02619
날	-8.03011
겨	-8.03148
차	-8.03149
겠다	-8.03298
파	-8.03349
못	-8.03352
▁실망	-8.0336
▁나오는	-8.0358
▁어떻게	-8.03902
▁내내	-8.0397
▁반	-8.0403
지는	-8.04217
따	-8.04255
▁않고	-8.04369
▁그래도	-8.04408
▁보기	-8.04669
키	-8.04784
달	-8.04831
반	-8.05313
▁스	-8.05586
관	-8.05719
▁7	-8.05883
들은	-8.05936
▁배우들	-8.06004
▁모	-8.06021
!!!!	-8.06353
▁공포	-8.0646
카	-8.06483
▁아닌	-8.0719
▁아름다운	-8.07196
터	-8.07199
e	-8.07599
없이	-8.07627
▁딱	-8.07648
▁이상	-8.07863
▁우	-8.07925
▁우리	-8.0794
▁연기가	-8.08052
하네요	-8.0813
▁5	-8.08286
후	-8.08556
▁아니다	-8.08599
애	-8.0864
▁추천	-8.08976
형	-8.0899
▁장면	-8.09235
~~~	-8.09272
▁9	-8.09493
구나	-8.09799
점이	-8.10184
▁스릴러	-8.10336
이라	-8.10601
즈	-8.10667
ᄒ	-8.10777
o	-8.1081
▁제일	-8.10831
▁만드는	-8.11153
▁박	-8.11158
버	-8.11518
어서	-8.11552
4	-8.11681
▁끝	-8.11846
♥	-8.12259
▁반전	-8.12624
▁재밌어요	-8.12716
다니	-8.13014
현	-8.13015
▁전개	-8.13149
▁강	-8.13326
▁조금	-8.13422
▁그런	-8.13468
▁이제	-8.13781
▁듯	-8.13953
적으로	-8.13972
▁싶다	-8.14181
▁0	-8.14315
▁보다가	-8.14646
▁않은	-8.14732
니까	-8.14824
ᅳ	-8.14999
보면	-8.1511
▁않는	-8.15133
▁내용도	-8.15231
▁개봉	-8.15398
▁남는	-8.1548
짱	-8.15609
▁되	-8.16076
▁요즘	-8.16388
▁8	-8.1639
▁모든	-8.16707
되	-8.16858
스토리	-8.17056
▁연기도	-8.17111
▁근데	-8.17532
▁보다	-8.17591
▁만들어	-8.17618
▁나는	-8.17813
체	-8.17841
보는	-8.17852
▁아까운	-8.18109
5	-8.18161
▁음악	-8.18273
▁주인공	-8.18282
년대	-8.18284
t	-8.18458
망	-8.18584
생각	-8.18794
▁눈	-8.18799
공	-8.18902
▁여운이	-8.19057
▁남자	-8.19249
▁재미도	-8.19311
▁절대	-8.19389
▁기억	-8.19565
▁피	-8.20248
지도	-8.2032
▁OO	-8.20569
▁건	-8.20896
▁시간이	-8.21149
코	-8.21477
▁수준	-8.21505
려고	-8.2156
▁욕	-8.21631
▁감독이	-8.21711
다가	-8.21723
▁이해	-8.2176
▁아직도	-8.21788
▁배	-8.21802
▁스토리가	-8.21929
▁애니	-8.21995
▁막장	-8.22251
산	-8.22696
볼	-8.23141
배	-8.23147
▁연기력	-8.23334
▁속	-8.23361
문	-8.2337
실	-8.2363
이라는	-8.23824
▁뻔한	-8.23953
져	-8.24488
예	-8.24543
▁엄청	-8.24587
▁영화라고	-8.24684
하기	-8.24787
▁쓰	-8.24964
▁ᄏᄏᄏᄏ	-8.24967
ᄏᄏᄏᄏ	-8.25593
이란	-8.25615
▁오랜만에	-8.25758
참	-8.25784
던데	-8.25815
인듯	-8.26069
▁멋진	-8.26071
ᅮᅮ	-8.26386
왜	-8.26519
▁노	-8.26685
쳐	-8.26794
▁때문에	-8.26885
▁걍	-8.27029
▁제대로	-8.2706
죽	-8.27127
않	-8.27205
▁불	-8.27219
한테	-8.27354
극	-8.2755
▁날	-8.27687
▁영화입니다	-8.27772
;;;	-8.27896
속	-8.2802
▁현실	-8.28174
▁하고	-8.28846
것도	-8.29175
▁나름	-8.2935
뿐	-8.29367
점은	-8.29399
▁원	-8.29399
정도	-8.29418
▁울	-8.29447
행	-8.29629
▁나오	-8.29836
▁좋았다	-8.30092
▁가족	-8.30104
금	-8.30182
▁망	-8.30283
해요	-8.30362
▁봤습니다	-8.30438
▁재	-8.30733
▁최고다	-8.30749
▁나온	-8.30886
꺼	-8.30949
???	-8.31254
▁차라리	-8.3156
▁눈물	-8.31631
▁좋고	-8.31646
능	-8.31706
▁미국	-8.31874
▁지루하고	-8.31877
▁결말	-8.31897
▁진심	-8.31988
▁도대체	-8.32405
▁졸	-8.32423
토	-8.3253
밖에	-8.32593
▁제목	-8.32595
▁웃	-8.32611
▁나도	-8.32724
배우	-8.32808
▁예	-8.32828
▁공감	-8.32922
▁주는	-8.33004
▁파	-8.33014
7	-8.33018
잼	-8.33054
▁지루함	-8.33073
태	-8.33177
▁발	-8.33214
▁지루한	-8.33216
라도	-8.33285
▁B	-8.33341
였다	-8.33387
매	-8.33423
▁재밌	-8.33447
▁^^	-8.33501
▁OOO	-8.33521
▁걸	-8.3362
▁스토리도	-8.33659
▁공포영화	-8.33777
▁재밌는	-8.33807
▁원작	-8.33847
▁만들	-8.33962
회	-8.34015
격	-8.34024
▁성	-8.34068
▁수작	-8.34246
는거	-8.34459
평점	-8.34599
▁영	-8.34682
▁ᅲ	-8.34709
▁연	-8.34796
없	-8.35095
▁아니고	-8.35575
s	-8.35681
▁봤던	-8.35909
석	-8.35937
▁캐릭터	-8.35948
▁시리즈	-8.35955
학	-8.36088
▁세	-8.36245
▁동	-8.36531
▁공	-8.36649
▁감독의	-8.372
했는데	-8.3741
▁보면서	-8.37471
▁괜찮은	-8.37495
▁없음	-8.37542
▁정도	-8.37655
/	-8.3772
▁기분	-8.37771
는게	-8.37794
봤다	-8.37908
락	-8.37915
▁재미가	-8.37987
넘	-8.38267
▁없	-8.38281
▁되는	-8.38491
~!	-8.38495
▁여	-8.3862
▁20	-8.3873
최고	-8.39049
▁영상	-8.39053
▁우리나라	-8.39207
▁영화의	-8.39303
▁싶은	-8.39403
사람	-8.39432
▁보세요	-8.39541
릴	-8.39607
▁좋아하는	-8.39607
▁대사	-8.39681
▁몇	-8.39887
종	-8.39977
▁지루하다	-8.39981
이고	-8.40125
▁심	-8.40216
중에	-8.40269
감동	-8.40335
▁가슴	-8.4063
▁졸작	-8.40739
등	-8.40884
니다	-8.41014
▁긴장감	-8.41021
▁죽	-8.41309
▁시작	-8.41513
▁소재	-8.41549
그냥	-8.41634
▁않	-8.41862
▁재밋	-8.41928
▁마지막에	-8.41942
스트	-8.41942
녀	-8.42015
6	-8.42091
건지	-8.42213
역	-8.42302
더라	-8.42699
투	-8.42771
▁알바	-8.43062
▁뭘	-8.43215
었는데	-8.43252
▁초	-8.4344
,,,	-8.43493
▁보게	-8.43626
▁시나리오	-8.43627
▁표현	-8.43665
구만	-8.43869
d	-8.43896
집	-8.44079
▁기억에	-8.44135
▁뭔	-8.44312
테	-8.44457
▁후회	-8.45052
8	-8.45251
들을	-8.45276
브	-8.45332
▁특히	-8.45468
봄	-8.45471
▁이해가	-8.45484
▁막	-8.4564
있다	-8.45714
았다	-8.45857
좋	-8.46024
짐	-8.46052
▁애니메이션	-8.46072
설	-8.46148
해도	-8.46159
▁사람들	-8.46185
▁진	-8.46365
머	-8.46379
▁그저	-8.46412
▁좋아요	-8.46425
리는	-8.46811
케	-8.46897
감독	-8.47128
근	-8.47352
장면	-8.47591
▁배우들의	-8.47634
▁보는내내	-8.47653
▁허	-8.47791
움	-8.47818
악	-8.47932
업	-8.48059
▁사실	-8.48152
▁영화에	-8.48185
강	-8.48676
▁봤어요	-8.48946
a	-8.49005
▁강추	-8.49016
▁함께	-8.49065
▁재밌음	-8.49133
사랑	-8.49163
이라고	-8.49246
▁행복	-8.49265
▁머	-8.49351
▁맞	-8.49465
이런	-8.49575
▁될	-8.49583
▁필요	-8.49631
▁있	-8.4972
▁6	-8.49931
탄	-8.5001
돈	-8.50112
만큼	-8.50222
불	-8.50236
재밌	-8.50763
▁인간	-8.50992
▁만화	-8.51091
절	-8.51109
▁노래	-8.51317
력	-8.51681
▁살	-8.5175
통	-8.51889
먹	-8.52043
▁캐스팅	-8.52343
""	-8.52544
▁개인적으로	-8.52744
는지	-8.52772
너	-8.52782
▁코믹	-8.52799
▁오늘	-8.53105
쓰레기	-8.5313
▁차	-8.53295
ᅮ	-8.53482
▁매	-8.53623
작품	-8.53713
포	-8.53719
이야	-8.53735
▁몰입도	-8.5405
▁못한	-8.54146
▁어떤	-8.54313
글	-8.54313
양	-8.54361
봐도	-8.54755
▁웃기	-8.55353
했	-8.55404
▁존나	-8.55602
▁큰	-8.55924
▁매우	-8.55966
슨	-8.56006
▁극장에서	-8.56092
▁잼	-8.56123
주는	-8.56203
▁잠	-8.56427
알	-8.56673
쓰	-8.56734
▁제발	-8.56938
▁한국영화	-8.57251
▁없이	-8.57384
▁안되는	-8.57523
▁베	-8.57556
▁영화로	-8.57565
김	-8.57679
었던	-8.57931
▁결국	-8.57933
▁ᄒ	-8.57934
재미	-8.57972
▁더빙	-8.58077
했음	-8.58155
▁생각이	-8.58179
▁재미없음	-8.58287
이네	-8.58378
봐	-8.58385
계	-8.58444
▁담	-8.58468
▁최	-8.58559
론	-8.59179
▁들	-8.592
▁같	-8.59266
대로	-8.59322
새	-8.59369
창	-8.59395
난다	-8.59404
▁된	-8.59438
액션	-8.59667
▁감	-8.59808
▁모르겠다	-8.59834
승	-8.59926
▁억지	-8.59976
보단	-8.60055
씬	-8.60255
▁토	-8.60303
환	-8.60361
을까	-8.60498
▁마음	-8.60646
갈	-8.60904
하면서	-8.61019
i	-8.61341
잡	-8.6135
교	-8.61478
아니	-8.61516
▁마음이	-8.62088
천	-8.6235
른	-8.62696
▁봐야	-8.62786
기도	-8.62885
▁별점	-8.62972
군요	-8.63192
▁감동이	-8.6324
▁예술	-8.63324
점대	-8.6355
▁똥	-8.6396
▁ᅮᅮ	-8.63977
▁분위기	-8.64082
입	-8.64101
▁아이	-8.64102
버린	-8.64154
초	-8.64258
병	-8.6429
▁보지	-8.64346
▁사람이	-8.64359
이네요	-8.64488
▁전쟁	-8.64531
된다	-8.64632
▁아무리	-8.64728
▁재미있다	-8.64769
레이	-8.65012
할수	-8.65037
▁재밌고	-8.65135
▁길	-8.6528
▁연기는	-8.65464
▁너무나	-8.6556
점을	-8.65663
▁미친	-8.65695
▁않는다	-8.65723
슬	-8.65766
▁존	-8.65932
결	-8.66073
▁문제	-8.6616
색	-8.66179
이상	-8.6639
▁그만	-8.66487
▁타	-8.66521
▁호	-8.66536
름	-8.66584
끼	-8.66897
▁가슴이	-8.66978
련	-8.66992
▁상	-8.67051
▁따라	-8.671
증	-8.6711
▁물	-8.67114
▁영화네요	-8.67153
있	-8.67159
영화는	-8.67209
▁단	-8.67291
▁얼마나	-8.67396
▁위한	-8.67401
인줄	-8.67623
▁평	-8.67717
별	-8.67807
▁선	-8.67838
▁걸작	-8.67861
>	-8.67865
짓	-8.67894
이지만	-8.67937
▁노잼	-8.67991
g	-8.68133
▁기억이	-8.68213
▁로맨스	-8.68601
▁내용은	-8.68674
▁결말이	-8.68776
▁명	-8.68894
직	-8.68968
▁쓰레기영화	-8.69127
▁너	-8.69687
▁없어	-8.69701
▁같이	-8.69729
▁지루	-8.69772
▁있고	-8.69844
▁중국	-8.69886
▁하나도	-8.69892
하며	-8.69914
었	-8.69938
▁꽤	-8.70107
담	-8.70111
권	-8.70126
▁높	-8.70248
▁준	-8.70358
기는	-8.70391
평	-8.70402
칠	-8.7043
p	-8.7043
▁설정	-8.70443
▁허접	-8.70454
▁누가	-8.70524
완전	-8.70546
▁눈물이	-8.70561
베	-8.70649
▁손	-8.70706
▁한다	-8.7071
▁경	-8.70846
출	-8.70901
▁약	-8.70984
▁당	-8.71178
왔	-8.71248
나는	-8.7125
▁매력	-8.71309
▁싶	-8.71324
▁치	-8.71348
▁엔딩	-8.71483
뭐	-8.71508
잇	-8.71591
친	-8.71652
▁있을	-8.71765
▁어설픈	-8.7195
▁잼있	-8.71961
느낌	-8.72013
▁백	-8.72349
▁감동적인	-8.72631
이었다	-8.73116
▁않다	-8.7321
▁애들	-8.73284
+	-8.73297
이지	-8.73308
0	-8.73521
열	-8.73544
▁"	-8.73596
였음	-8.7364
▁-	-8.73646
▁그나마	-8.73701
소리	-8.7382
▁갈수록	-8.7384
맨	-8.73926
이거	-8.74019
께	-8.74036
▁영화중	-8.74039
▁잔잔한	-8.74126
▁극	-8.74133
▁아쉽다	-8.74174
▁발연기	-8.74246
▁아무	-8.7444
수가	-8.74453
▁있었	-8.74457
▁대체	-8.74519
▁정신	-8.74521
기에	-8.74695
내용	-8.74708
▁웃음	-8.7472
▁것이	-8.74777
▁간만에	-8.74841
짜	-8.7511
좋아	-8.75178
▁엄마	-8.75221
▁재미없	-8.75255
블	-8.75294
또	-8.75364
▁재미있어요	-8.75398
록	-8.75458
▁출연	-8.75492
건가	-8.75627
▁성룡	-8.75854
▁음	-8.75892
였	-8.75916
▁훨씬	-8.76049
▁볼만한	-8.76147
었음	-8.76225
▁재미있는	-8.76237
▁그렇게	-8.76351
▁멋있	-8.76375
▁영화관에서	-8.76505
▁감동도	-8.76567
향	-8.76746
▁위	-8.769
거야	-8.77081
온	-8.77149
h	-8.77218
될	-8.77277
▁재밌네요	-8.77303
뻔	-8.77318
빠	-8.77621
9	-8.77764
▁없었다	-8.77778
▁실	-8.77879
땜에	-8.77974
ᄋ	-8.78349
▁총	-8.7843
▁알고	-8.78522
훈	-8.78559
▁주연	-8.78598
졌	-8.78606
▁간	-8.79132
보니	-8.79192
플	-8.79235
수준	-8.79338
막	-8.79368
각	-8.79634
▁먹	-8.79648
▁좋은데	-8.79803
▁시즌	-8.79847
▁위해	-8.79925
었어요	-8.79935
▁밖에	-8.80081
u	-8.80168
해라	-8.8049
▁의미	-8.80659
언	-8.80723
거지	-8.80728
진다	-8.80752
▁잡	-8.80994
됨	-8.81095
▁인	-8.8114
년이	-8.81194
라서	-8.81427
k	-8.81585
존	-8.81691
▁다큐	-8.8194
▁이딴	-8.82061
침	-8.82089
왕	-8.82108
▁그래서	-8.82239
더니	-8.82446
▁구성	-8.82529
▁생각보다	-8.82746
▁좋	-8.82775
백	-8.82803
▁재미는	-8.82893
▁뭐야	-8.82967
▁꿈	-8.8303
▁외	-8.83083
욕	-8.83134
다고	-8.83215
▁집중	-8.83267
만들	-8.83375
▁진정한	-8.83535
▁많	-8.83553
하는데	-8.83607
돌	-8.8364
▁암	-8.83831
▁맘에	-8.8394
▁올	-8.83982
에도	-8.84067
합	-8.84194
해야	-8.84256
나요	-8.84283
l	-8.84392
싶	-8.84415
▁코	-8.84437
▁추	-8.84469
맞	-8.84746
표	-8.84767
▁야	-8.84828
▁천	-8.85285
▁느낌이	-8.85547
▁점수	-8.85636
▁안되	-8.85768
치고	-8.85838
기를	-8.86055
▁화	-8.86122
▁보여주는	-8.86165
할때	-8.86226
y	-8.86293
▁ᅳ	-8.86441
습	-8.86452
순	-8.86495
메	-8.86738
나오는	-8.8677
▁장난	-8.86789
▁비교	-8.87105
적이	-8.87358
▁당시	-8.87389
r	-8.87465
기대	-8.87529
▁30	-8.87568
찍	-8.87588
리고	-8.87729
▁재미없는	-8.87784
라면	-8.87989
▁약간	-8.88088
▁CG	-8.88144
▁재미있	-8.88215
▁오래	-8.88224
▁포	-8.88425
스러운	-8.88496
▁다들	-8.88503
▁열	-8.88526
▁네이버	-8.88649
▁자체	-8.88714
▁주고	-8.88735
어야	-8.88783
했지만	-8.88789
이건	-8.88817
▁아님	-8.88824
▁연기를	-8.88991
~!!	-8.89034
▁뿐	-8.89215
▁전부	-8.89225
▁영화였다	-8.89244
▁어느	-8.89325
느	-8.89356
▁숨	-8.89491
▁들어	-8.89607
영화를	-8.89659
퍼	-8.89661
▁적	-8.89829
▁메	-8.89839
웃	-8.89955
아서	-8.90056
▁입	-8.90263
여자	-8.90326
처	-8.90432
편이	-8.90561
▁같아요	-8.90602
린다	-8.90799
▁배우들이	-8.9088
▁카	-8.90923
▁""	-8.9118
▁꿀잼	-8.91243
▁찾아	-8.91325
▁작가	-8.91404
놓고	-8.91445
추	-8.91659
▁첨	-8.91957
났	-8.91998
▁갈	-8.92198
먼	-8.922
▁준다	-8.92212
▁스토리는	-8.9226
듯한	-8.92338
이야기	-8.92347
▁뭐지	-8.9244
세요	-8.92531
기가	-8.92634
b	-8.92678
▁생각을	-8.92706
없고	-8.92733
▁멜로	-8.92901
낸	-8.92917
▁있을까	-8.93058
▁좋은영화	-8.93131
굿	-8.9315
▁글	-8.93411
▁영상미	-8.93412
▁평가	-8.93413
영화가	-8.9349
▁감동을	-8.9361
을때	-8.93641
덕	-8.93699
치는	-8.93725
♡	-8.93748
▁존재	-8.93819
▁good	-8.93834
▁얘기	-8.93905
▁힘	-8.93983
눈	-8.94055
▁방	-8.94068
쉬	-8.94076
앗	-8.94134
겠지	-8.94176
▁버	-8.94208
▁판타지	-8.94351
빈	-8.94508
▁중간에	-8.94568
▁얼굴	-8.94619
▁힘들	-8.94684
겠	-8.94706
▁않았	-8.94715
_	-8.94729
▁영화인데	-8.94885
▁모습	-8.94968
▁바로	-8.95038
▁충격	-8.9505
▁감성	-8.95151
▁뭐냐	-8.95181
▁언제	-8.95222
혜	-8.95303
▁영화임	-8.95314
해지는	-8.95349
광	-8.95587
약	-8.95607
그리고	-8.95612
슴	-8.9564
월	-8.95642
▁찾	-8.95656
척	-8.95664
션	-8.95675
▁봤지만	-8.9608
탈	-8.96115
▁관객	-8.96131
▁나이	-8.96135
D	-8.96137
익	-8.9647
-_-	-8.96506
▁악	-8.96531
▁줄거리	-8.96586
▁작	-8.96827
▁딸	-8.96923
▁나와서	-8.96944
▁초딩	-8.96962
m	-8.97025
찬	-8.97363
▁편	-8.97456
▁달	-8.97482
▁마음에	-8.97509
법	-8.97572
효	-8.97613
▁여주인공	-8.977
▁생각하게	-8.97738
▁추억	-8.97745
혀	-8.97906
▁종	-8.98033
"	-8.98067
기만	-8.98154
범	-8.98166
▁나올	-8.982
이라도	-8.98207
재미있	-8.98291
편은	-8.9847
주의	-8.98652
잖아	-8.98715
▁높은	-8.988
▁이런영화	-8.98824
▁아까움	-8.98961
▁어디서	-8.99008
c	-8.99032
▁뒤	-8.99069
것이	-8.99113
▁소리	-8.99179
▁봤음	-8.99181
▁이영화를	-8.99208
있고	-8.99419
는건	-8.99449
▁tv	-8.99479
▁실화	-8.99626
▁재밌는데	-8.99641
▁이름	-8.99695
▁비해	-8.9973
▁그대로	-8.99775
좋은	-8.99825
별로	-8.99891
▁장르	-8.9992
료	-8.99974
▁시대	-9.00042
▁포스터	-9.00101
▁봐라	-9.00257
커	-9.00281
▁여기	-9.00316
▁각본	-9.00449
▁대단한	-9.00461
숙	-9.00463
봐서	-9.00575
▁나의	-9.00663
▁데	-9.0068
▁너무너무	-9.00793
▁역사	-9.00803
햇	-9.00862
분들	-9.01208
▁아이들	-9.01399
귀	-9.01407
▁혼자	-9.01492
▁만점	-9.01512
시리즈	-9.0158
▁거의	-9.01636
없음	-9.01649
▁몰입	-9.01844
▁같은데	-9.02035
▁레	-9.02161
▁비디오	-9.02242
엇	-9.02442
▁봐서	-9.02455
▁좋네요	-9.02513
▁상당히	-9.02532
외	-9.02752
▁크	-9.02786
▁나왔	-9.02933
같이	-9.02943
▁봐	-9.02981
▁맛	-9.02997
▁질	-9.03005
으나	-9.03088
▁예상	-9.03192
채	-9.03308
▁볼만	-9.03469
복	-9.03471
▁그러	-9.03545
최악	-9.0377
써	-9.03814
목	-9.03821
들어	-9.03875
▁사회	-9.03897
나오	-9.04023
지루	-9.04083
▁관	-9.04393
▁머리	-9.04399
▁대해	-9.04436
했어요	-9.04454
▁사람들이	-9.04486
▁훌륭한	-9.04545
튼	-9.04555
▁끝나	-9.04615
놈	-9.04864
▁90	-9.04878
▁주제	-9.049
▁했는데	-9.04904
▁다시봐도	-9.04941
▁감동적이	-9.0507
▁원작을	-9.05078
▁변	-9.05228
곡	-9.05294
▁친구	-9.05447
엉	-9.05469
▁것을	-9.0557
▁감정	-9.05577
▁아직	-9.05669
▁더럽게	-9.05777
구요	-9.05784
▁패	-9.058
▁헐	-9.05898
독	-9.05932
▁재밌었다	-9.05999
n	-9.06134
▁다음	-9.06217
OO	-9.06274
▁삼류	-9.06358
패	-9.06409
대박	-9.06411
▁궁금	-9.06431
년전	-9.06654
마지막	-9.06785
▁순	-9.06812
청	-9.06816
▁어릴때	-9.06876
근데	-9.0706
▁짜증	-9.07093
▁자기	-9.07178
이라면	-9.07188
▁부족	-9.07284
▁여배우	-9.07526
▁지루해	-9.07554
▁몸	-9.07609
▁된다	-9.07641
▁그리	-9.07688
▁왕	-9.07796
럽	-9.07799
▁재미없어	-9.07805
▁휴	-9.07827
씩	-9.08072
▁옛날	-9.08123
남자	-9.08152
보기	-9.08267
▁감독님	-9.08317
▁제작	-9.0847
모르	-9.08508
▁굉장히	-9.08519
▁흥행	-9.08529
▁상황	-9.08791
▁저런	-9.08826
▁평점을	-9.08855
▁새로운	-9.08981
▁극장판	-9.08996
▁이것도	-9.08996
▁배경	-9.09034
스럽다	-9.09067
▁장면이	-9.09318
다시	-9.09331
▁뭐가	-9.09384
▁낫다	-9.09483
다는	-9.09487
▁TV	-9.09514
▁그닥	-9.09533
▁누구	-9.09572
▁팬	-9.09743
짝	-9.09763
추천	-9.10068
한거	-9.10119
▁연출력	-9.1024
츠	-9.103
▁영화도	-9.10446
▁싸	-9.10504
시키	-9.10613
▁그러나	-9.10678
▁유치한	-9.10699
했습니다	-9.10728
▁봄	-9.10743
▁따	-9.10777
▁분	-9.10833
조차	-9.10943
▁화면	-9.11042
▁흥미진진	-9.11061
거리	-9.11148
................	-9.11199
끝	-9.1138
▁처음부터	-9.11395
건데	-9.11397
▁ᄍᄍ	-9.11404
▁유치	-9.11451
▁어디	-9.11508
▁빨리	-9.11544
쯤	-9.11621
듬	-9.11744
▁흠	-9.11752
▁따뜻한	-9.1184
들도	-9.12049
받	-9.12148
▁만들었	-9.12271
라니	-9.12291
▁그런지	-9.12292
▁정도로	-9.12299
▁성우	-9.12369
올	-9.12444
쪽	-9.12573
▁항상	-9.12575
▁있지만	-9.12623
▁하지	-9.12697
▁살아	-9.12734
~~~~	-9.12769
▁초반	-9.12781
▁통	-9.12887
땐	-9.13034
같다	-9.13087
으니	-9.1317
▁보니	-9.13225
에선	-9.13362
▁스릴	-9.1344
▁뻔	-9.13448
명작	-9.13471
성이	-9.13548
▁돌아	-9.1373
▁두번	-9.13737
▁가는	-9.1385
▁잘못	-9.13878
▁재밌어	-9.14004
▁의도	-9.14053
▁아버지	-9.14119
길래	-9.14128
▁별루	-9.14166
전개	-9.14212
잔	-9.14237
▁예전에	-9.14414
▁충분히	-9.14447
▁삼	-9.14472
▁리	-9.14512
▁양	-9.146
▁안된다	-9.14681
술	-9.14682
▁것도	-9.14769
필	-9.14787
▁좋음	-9.14945
▁b	-9.15063
▁윤	-9.15118
도없고	-9.15123
▁첫	-9.15141
본다	-9.15209
▁그것	-9.15214
▁계	-9.1528
▁없네	-9.15342
▁제가	-9.15557
했으면	-9.1557
나라	-9.15592
▁세계	-9.15673
이라니	-9.15713
한영화	-9.15726
▁슬픈	-9.15801
봐라	-9.15844
▁말고	-9.15897
▁앞	-9.15943
일까	-9.16042
▁생각해	-9.16154
▁교훈	-9.16169
▁했다	-9.16206
▁있어	-9.1633
▁못하는	-9.16406
만든	-9.16459
▁(	-9.16465
▁한마디로	-9.1657
▁만족	-9.16579
에는	-9.16651
다면	-9.16802
▁봤네요	-9.16867
▁산	-9.16881
▁좋겠다	-9.16948
정도로	-9.17022
▁망작	-9.17087
간다	-9.17097
배우들	-9.17217
같	-9.17218
링	-9.17279
고싶다	-9.17422
였는데	-9.1743
▁느	-9.17515
처음	-9.1757
▁있어서	-9.17622
것같다	-9.17626
▁믿	-9.17665
버리	-9.17705
▁말도	-9.17706
▁도저히	-9.17763
▁돈주고	-9.17803
▁괜찮	-9.17873
▁영화라	-9.17899
▁낮	-9.18032
팬	-9.18161
껏	-9.18248
▁바라	-9.18316
f	-9.1833
하시	-9.18333
:	-9.1835
▁완벽한	-9.18391
노잼	-9.18393
▁이영화는	-9.18421
괴	-9.18442
▁그래픽	-9.18443
많	-9.18502
겟	-9.18556
런	-9.18576
▁완벽	-9.18613
▁짜	-9.18673
▁현	-9.18688
셨	-9.18717
▁불륜	-9.18747
▁되어	-9.18775
억	-9.18779
▁굳	-9.18866
▁없어서	-9.1888
철	-9.18884
멋	-9.18892
▁점점	-9.18941
적이고	-9.19016
▁100	-9.19107
▁병맛	-9.19174
▁무조건	-9.19227
거냐	-9.1929
재밋	-9.19306
만으로도	-9.19466
이에요	-9.19523
▁놀	-9.19664
▁훌륭	-9.19716
▁웃긴	-9.19817
▁좋았어요	-9.19868
▁번	-9.19935
그런	-9.19988
▁나온다	-9.20001
센	-9.20214
하냐	-9.20233
▁엄청난	-9.20323
거다	-9.20337
품	-9.20361
▁일단	-9.2039
싸	-9.20433
▁허무	-9.20478
▁어린	-9.2062
혹	-9.20651
하여	-9.20692
▁찍	-9.2089
▁만들지	-9.20928
▁낮은	-9.2097
윤	-9.20978
주세요	-9.21063
▁M	-9.21089
사람들	-9.21132
속에	-9.2116
▁저는	-9.21164
염	-9.21212
▁밀	-9.2125
▁갑자기	-9.21276
▁바보	-9.21344
▁자체가	-9.21351
▁평점에	-9.21414
휴	-9.2142
▁킬링타임용	-9.21561
나서	-9.21628
▁대단	-9.21903
내가	-9.21904
▁알았	-9.21933
ᄉ	-9.22014
징	-9.22191
재미없	-9.22247
허	-9.22401
▁평점은	-9.22471
롭	-9.22549
벌	-9.22551
▁무서운	-9.22554
하니	-9.22571
^	-9.22583
▁저질	-9.22631
을듯	-9.22633
▁보여주	-9.22682
▁있었다	-9.22689
▁요	-9.22715
웃음	-9.22748
▁전형적인	-9.22751
▁대작	-9.22809
곳	-9.22892
▁돈이	-9.22947
▁돌	-9.22964
음악	-9.22975
▁시절	-9.22985
▁재미있고	-9.23167
▁지금까지	-9.23205
▁괜히	-9.23238
▁일본영화	-9.23258
▁설	-9.23262
▁어렸을때	-9.23335
지금	-9.23392
이냐	-9.23403
완	-9.23407
웠	-9.23421
되어	-9.23454
▁반전이	-9.23494
▁영화보다	-9.23542
떨어	-9.23551
얼	-9.23595
▁이정도	-9.23684
▁깨	-9.23745
▁여주	-9.23761
들에게	-9.23773
▁생	-9.23901
아깝다	-9.2394
▁힘든	-9.24006
▁주인공이	-9.24011
▁광	-9.24096
도록	-9.24146
▁볼수	-9.24201
▁아쉬운	-9.24266
예요	-9.24273
▁나와	-9.24327
삼	-9.24334
▁알았다	-9.24343
▁극장	-9.24397
십	-9.24674
▁먹먹	-9.24706
년도	-9.24832
--	-9.24857
w	-9.24923
갑	-9.25203
보다가	-9.25378
▁ᄒᄒᄒ	-9.25482
만한	-9.25488
연출	-9.25594
▁몰	-9.25601
주인공	-9.25607
▁아쉽	-9.25618
▁모르고	-9.25636
▁보는데	-9.25689
에요	-9.25702
밀	-9.25728
▁80	-9.25825
한데	-9.25828
▁더욱	-9.25904
▁재밌었어요	-9.2591
리가	-9.25927
거나	-9.26123
겠지만	-9.26128
▁떠	-9.2621
변	-9.26279
▁없을	-9.26315
낮	-9.26329
풍	-9.2633
였습니다	-9.26388
점짜리	-9.26388
▁사람은	-9.26453
좋다	-9.26494
▁참고	-9.26546
였던	-9.26611
많이	-9.26652
▁개연성	-9.26802
▁코메디	-9.26867
▁역	-9.26903
▁감독은	-9.2696
▁사랑을	-9.26991
놈들	-9.27147
▁아이들이	-9.27193
▁으	-9.27203
▁부족한	-9.27259
▁자꾸	-9.27263
함이	-9.27303
▁것은	-9.27321
함을	-9.27372
▁화이팅	-9.27409
책	-9.27427
이게	-9.27506
▁알게	-9.27777
한번	-9.27824
▁지루하	-9.27835
▁없네요	-9.27853
리스	-9.27934
보다는	-9.27937
▁졸라	-9.27952
▁재미없고	-9.28017
▁책	-9.28018
놀	-9.28059
▁원래	-9.28078
▁믿고	-9.28178
▁새	-9.28322
▁작품성	-9.28391
슈	-9.28487
규	-9.28487
▁슬프	-9.28493
▁명작이다	-9.28548
딱	-9.28573
봐야	-9.287
▁소설	-9.28807
▁스타일	-9.28904
되고	-9.28959
▁SF	-9.29031
▁좀비	-9.29104
꼬	-9.29133
▁선택	-9.2914
▁순간	-9.29141
졌다	-9.29142
줬	-9.29269
픈	-9.29388
년에	-9.29423
겁	-9.29457
▁대단하다	-9.29504
▁예고편	-9.29504
▁리메이크	-9.29571
킹	-9.29572
▁가지고	-9.29613
보는데	-9.29636
▁진실	-9.29646
뜨	-9.29697
곤	-9.29704
▁설명	-9.29725
시대	-9.29747
▁속편	-9.29751
▁이런걸	-9.29789
▁전개가	-9.29791
▁괴	-9.298
▁목소리	-9.29934
줘	-9.29983
렌	-9.30118
네여	-9.30129
▁써	-9.30145
맛	-9.30249
▁왜이리	-9.30289
▁하다	-9.30381
육	-9.30658
▁청춘	-9.30674
자들	-9.3076
▁시간낭비	-9.3085
▁액션도	-9.30867
드는	-9.30914
▁문	-9.30932
▁여운	-9.30962
▁미화	-9.31062
▁댓글	-9.31081
▁느낄	-9.31208
x	-9.3122
역시	-9.31221
부분	-9.31252
하던	-9.31312
립	-9.31398
▁집	-9.31415
꼭	-9.31431
걸까	-9.3155
봣	-9.31602
북	-9.31711
끔	-9.31736
▁노력	-9.32027
▁느끼게	-9.32077
▁액션영화	-9.32178
00	-9.32281
ᄆ	-9.32334
▁완성도	-9.32335
▁우연히	-9.32355
▁천재	-9.32397
▁투	-9.32478
▁않을	-9.32481
▁태	-9.32534
▁아오	-9.32585
▁없었	-9.32637
영화다	-9.32648
▁이런거	-9.32718
재밌게	-9.32728
▁처음으로	-9.32781
▁ost	-9.32879
▁귀여운	-9.32908
▁이리	-9.32922
▁유머	-9.3301
결말	-9.33028
그래도	-9.33086
▁흐	-9.3313
▁프랑스	-9.33133
▁터	-9.33161
몰	-9.33161
▁지금도	-9.33204
▁귀신	-9.33275
▁됐	-9.3336
하는게	-9.33406
▁최악이다	-9.33413
축	-9.33447
▁편집	-9.33451
ᅲᅲᅲ	-9.33463
▁겁나	-9.33486
인거	-9.33507
▁기대하고	-9.33558
▁등	-9.33567
을텐데	-9.33586
▁아까워	-9.33586
▁유치하고	-9.33631
▁지루하지	-9.33811
▁당신	-9.33905
▁짜증나	-9.33975
점준다	-9.34049
야지	-9.34088
▁쳐	-9.34091
▁후반부	-9.34097
▁안나오	-9.34161
▁성장	-9.34235
▁해준	-9.34365
▁전작	-9.34373
▁잘봤습니다	-9.34381
▁이상한	-9.34403
▁그때	-9.34479
▁신기	-9.34511
▁전기세	-9.34602
▁그래	-9.3468
▁내인생	-9.34683
▁나만	-9.34792
▁온	-9.34855
▁낚	-9.34935
▁귀	-9.35012
여서	-9.35057
▁해도	-9.35061
▁늘	-9.35089
앙	-9.35148
로운	-9.35264
▁있음	-9.35265
시절	-9.35308
▁상영	-9.35333
▁자연	-9.35399
는것	-9.35429
▁감상	-9.35432
견	-9.3552
▁아무것도	-9.35801
▁여성	-9.35845
ᄀ	-9.35861
▁우울	-9.35935
▁안보	-9.35958
ᅲᅲᅲᅲ	-9.35964
▁ᄏᄏᄏᄏᄏ	-9.36136
하는거	-9.36238
▁아닌가	-9.36415
답	-9.36426
됐	-9.3649
▁과거	-9.36553
▁마무리	-9.36618
▁있는데	-9.36646
▁죽음	-9.36705
최고의	-9.36708
▁교	-9.36732
▁언	-9.36846
지않는	-9.36874
춘	-9.36905
려서	-9.36931
하세요	-9.37019
▁알았는데	-9.37035
▁억지로	-9.37038
애들	-9.37098
▁이유	-9.37106
▁세상	-9.37151
▁이후	-9.37174
것을	-9.37224
말이	-9.37302
▁상상	-9.37318
애니	-9.37322
졸	-9.37335
▁매력적인	-9.37478
▁연출이	-9.37488
▁황	-9.3749
▁나쁜	-9.37559
빵	-9.37726
▁끝내	-9.37767
~^^	-9.37801
▁왠지	-9.37811
손	-9.38017
랄	-9.38058
반전	-9.38093
▁불편	-9.38123
들과	-9.38195
▁빠져	-9.38299
▁독	-9.38328
▁진부한	-9.3843
준다	-9.38538
▁아들	-9.386
코미디	-9.38628
▁질질	-9.38658
▁느끼	-9.38665
킬	-9.38691
겠네	-9.38786
▁관람	-9.38799
▁슬	-9.38806
▁가치	-9.38838
▁싶어	-9.38841
▁이미	-9.38889
빨	-9.38911
놓	-9.3892
지고	-9.38942
했고	-9.38962
▁좋았음	-9.38972
안되	-9.39013
▁둘	-9.39091
황	-9.39122
지않은	-9.392
▁유쾌	-9.39257
▁글쎄	-9.39296
▁이야기를	-9.39302
영환	-9.39327
▁뭔지	-9.3933
▁이번	-9.39356
눈물	-9.39366
▁상상력	-9.39402
▁않음	-9.3941
▁쓴	-9.3952
▁이쁘	-9.39555
ᄃ	-9.39573
돼	-9.39676
마다	-9.3972
닥	-9.39857
T	-9.39882
엿	-9.39882
&	-9.39896
벨	-9.39896
힌	-9.39896
최	-9.39906
▁끌	-9.39923
▁유쾌한	-9.39978
▁방송	-9.40002
하자	-9.40035
▁까	-9.40071
족	-9.40128
▁감사	-9.40144
▁모르는	-9.40201
어도	-9.40262
▁브	-9.40345
가서	-9.4035
▁화려한	-9.40425
셔	-9.40578
▁영화였습니다	-9.40595
▁배우가	-9.40616
▁지금봐도	-9.40626
▁한계	-9.40786
▁인정	-9.40799
로서	-9.40816
▁허접한	-9.4088
▁인간의	-9.40892
▁느껴	-9.40909
랬	-9.40927
인이	-9.41108
E	-9.41112
▁진행	-9.4115
주고	-9.41159
▁수가	-9.41182
//	-9.41195
강추	-9.41197
성을	-9.41198
실망	-9.41203
▁재미있음	-9.41203
해주는	-9.41239
▁-_-	-9.41247
▁아름답다	-9.414
▁이런게	-9.41457
것이다	-9.41494
▁창	-9.41506
▁대한민국	-9.41533
쩔	-9.41554
▁로맨틱	-9.41717
▁분명	-9.41799
수록	-9.41812
홍	-9.4182
▁별로다	-9.41844
????	-9.41859
시켜	-9.41862
자가	-9.41882
▁넘어	-9.41934
▁복수	-9.41947
▁소재는	-9.42074
▁트	-9.42091
▁꼬	-9.42124
전에	-9.42124
면서도	-9.42132
보세요	-9.42181
났다	-9.42224
▁나에게	-9.42233
가족	-9.42236
인간	-9.42278
묘	-9.4229
▁그게	-9.42309
▁밑에	-9.42361
▁좋았습니다	-9.42406
봤음	-9.42447
▁저도	-9.42492
▁만나	-9.42497
는걸	-9.42505
마저	-9.42597
...........	-9.42602
▁훨	-9.4275
▁살인	-9.42771
ᄂ	-9.42944
없어	-9.42973
에겐	-9.42998
풀	-9.43092
작가	-9.43115
▁비슷한	-9.43126
▁니	-9.43174
하긴	-9.43417
싱	-9.43587
ᄅ	-9.43588
몬	-9.43589
든다	-9.43609
▁흥미	-9.4361
영화중	-9.43619
▁처	-9.43716
▁결혼	-9.43841
▁잘만든	-9.43846
▁영화중에	-9.43884
▁생각나	-9.43893
▁했	-9.43978
갔다	-9.43998
▁신선	-9.44168
아닌	-9.44198
갔	-9.44345
▁황당	-9.44437
▁않았다	-9.44526
▁엉성	-9.44659
▁눈이	-9.44683
▁이러	-9.44694
▁비추	-9.44695
▁형	-9.44728
▁개그	-9.44738
찰	-9.4477
령	-9.44801
잉	-9.4484
버렸다	-9.44842
▁앞으로	-9.44915
▁심심	-9.44979
▁왜이렇게	-9.45019
▁중에	-9.45025
오는	-9.45032
▁사람들은	-9.45083
▁아빠	-9.45159
으면서	-9.4525
▁어이없	-9.45302
꾸	-9.45345
ᄒᄒᄒ	-9.45354
▁낭비	-9.45414
놓은	-9.45414
▁골	-9.4545
*	-9.455
▁만들었다	-9.45523
▁현재	-9.45542
▁절	-9.45558
▁게임	-9.45637
▁수준이	-9.45648
언니	-9.45672
만으로	-9.4572
암	-9.45726
쇼	-9.45729
▁해서	-9.45753
확	-9.45768
▁특유의	-9.45769
▁촬영	-9.45797
보면서	-9.4586
▁갑	-9.45917
쩌	-9.45962
였어요	-9.45964
세계	-9.45982
흔	-9.46062
쁘	-9.46086
▁보고나서	-9.46105
▁어찌	-9.46176
▁그랬	-9.46268
보게	-9.46282
▁바람	-9.46283
틀	-9.4634
▁보고싶다	-9.46348
다운	-9.46417
▁맥	-9.4643
▁아니지만	-9.46457
▁지난	-9.46642
▁클	-9.4674
▁봤었는데	-9.46852
▁합니다	-9.46984
▁ᄉᄇ	-9.47033
동안	-9.4715
▁디	-9.47156
▁것이다	-9.47163
▁인상	-9.47234
▁귀엽고	-9.47267
▁이어	-9.47378
가지	-9.475
▁아놔	-9.47517
▁역대	-9.47532
▁확	-9.47541
나옴	-9.47698
감이	-9.47706
▁듯한	-9.47753
쿠	-9.47753
▁마음을	-9.479
▁특	-9.47994
▁지나	-9.47999
재밌어요	-9.48006
스타	-9.48017
▁C	-9.4804
좋아요	-9.48146
나온다	-9.48185
재미없다	-9.48193
▁재밌었는데	-9.48241
했는지	-9.48405
시간이	-9.48424
뒤	-9.48438
▁노출	-9.48451
▁분들	-9.48551
▁어이없는	-9.48566
▁답답	-9.4857
▁보지마세요	-9.48576
▁성인	-9.48644
땅	-9.48734
▁감사합니다	-9.48861
▁떠나	-9.48895
스런	-9.4893
▁액션이	-9.48943
▁재밌습니다	-9.48961
이제	-9.48977
▁어색	-9.49151
▁금	-9.49187
했을	-9.49277
텐데	-9.49296
틴	-9.4935
깔	-9.49391
▁깊이	-9.49397
▁이연걸	-9.49398
;;;;	-9.49481
▁좋았는데	-9.49495
▁프로	-9.49502
▁슬프다	-9.49545
▁리얼	-9.49683
▁재미없네	-9.49757
▁티	-9.49765
이면	-9.49775
▁알바들	-9.49801
▁신선한	-9.49863
▁남주	-9.49878
욱	-9.49896
영상	-9.49912
▁이영화가	-9.49991
▁매력이	-9.50049
떡	-9.50063
껄	-9.50063
▁제작비	-9.50171
▁모르겠	-9.50237
▁취향	-9.50343
▁목	-9.50347
▁자유	-9.50348
▁전편	-9.5051
▁시청률	-9.50519
▁섹시	-9.50737
▁좋았	-9.50743
▁여전히	-9.50767
▁확실히	-9.50768
페	-9.5092
이렇게	-9.51053
S	-9.51232
▁사랑이	-9.51256
▁범죄	-9.51326
좌	-9.5141
▁메세지	-9.51413
▁어릴적	-9.51459
▁잼있게	-9.51461
▁스토리에	-9.51477
▁있다는	-9.51543
▁해주는	-9.51605
유치	-9.51748
지마라	-9.51762
엄	-9.51851
▁느껴지는	-9.51865
충	-9.519
거같다	-9.51904
급영화	-9.51918
하라	-9.51949
▁웃겨	-9.51972
▁돋보	-9.52001
▁인물	-9.5203
턴	-9.5209
▁처음이다	-9.52149
▁얼	-9.52177
▁똑같	-9.52226
▁모습이	-9.52234
▁동화	-9.52276
줘야	-9.52299
▁어색한	-9.52322
▁키	-9.52403
▁그녀	-9.52478
▁같네요	-9.52498
▁놓	-9.52503
▁명작이	-9.5254
옥	-9.52555
내요	-9.52571
코드	-9.52595
누	-9.52606
▁대충	-9.52631
▁한편	-9.52651
았던	-9.52671
▁A	-9.52701
▁충	-9.52767
▁마라	-9.52789
▁너무나도	-9.5282
▁입니다	-9.52839
▁완	-9.52849
▁등장	-9.52881
▁찍은	-9.52886
거임	-9.52913
▁일상	-9.52928
나게	-9.52987
▁그런가	-9.53036
▁영웅	-9.53099
ᄍᄍ	-9.53166
▁감동적이고	-9.53168
▁독특한	-9.53201
▁눈을	-9.53204
었으면	-9.5325
▁세상에	-9.53275
점주는	-9.53325
▁맞는	-9.53339
▁장면은	-9.53348
=	-9.53366
▁좋았고	-9.53388
▁정치	-9.53391
한건	-9.53397
▁아닌듯	-9.53456
▁스케일	-9.53465
▁먼저	-9.53498
▁보여준	-9.53499
▁그림	-9.53531
짜리	-9.53547
▁어쩌	-9.53653
잼있	-9.53701
▁그럭저럭	-9.53726
▁복	-9.53737
했어	-9.54049
응	-9.54055
▁했지만	-9.54122
▁그렇고	-9.54159
▁표절	-9.5418
▁있었던	-9.54276
▁소름	-9.54289
▁추억의	-9.54351
▁단순	-9.54354
소재	-9.54417
▁이젠	-9.54449
▁s	-9.54499
념	-9.54518
▁표정	-9.54578
제목	-9.54579
드라	-9.54604
▁필요없다	-9.54611
▁재밌었	-9.54658
한듯	-9.54682
▁본다	-9.54726
송	-9.54768
깨	-9.54832
▁깊은	-9.54859
▁싫어	-9.5495
순간	-9.54956
무슨	-9.54982
20	-9.55062
▁작품이	-9.55083
▁아깝	-9.55152
ᄏᄏᄏᄏᄏ	-9.55169
▁시선	-9.5517
▁젤	-9.55175
만들어	-9.55246
아이	-9.55343
스터	-9.55368
%	-9.55387
▁애들이	-9.55417
▁몰랐	-9.55429
다른	-9.5543
▁좋을	-9.55444
▁빨	-9.5545
▁재밌네	-9.55468
되지	-9.5548
었습니다	-9.55521
릭	-9.55529
▁씨	-9.55535
량	-9.55538
▁유치하	-9.55542
압	-9.55555
ᅡ	-9.55563
▁꺼	-9.55678
없네	-9.5569
▁알수	-9.55723
▁주인공들	-9.55792
▁평론가	-9.55826
▁아름답고	-9.55849
▁재미있네요	-9.55897
▁돌려	-9.55908
▁15	-9.55917
▁그런데	-9.55982
들아	-9.56058
▁cg	-9.56077
지마	-9.56091
▁답	-9.56208
마음	-9.56245
▁잔인하	-9.56257
▁하면	-9.56258
▁와닿	-9.56299
C	-9.56302
클	-9.56302
줌	-9.56306
일뿐	-9.56368
나온	-9.56376
▁성공	-9.56383
모습	-9.56398
▁사이	-9.56404
있게	-9.56435
▁같습니다	-9.56459
▁요소	-9.56493
더군요	-9.56524
왔다	-9.56559
▁알아	-9.56775
▁독립영화	-9.56822
개도	-9.56848
먹는	-9.56915
,,,,	-9.56931
널	-9.56981
특히	-9.56988
찌	-9.56991
▁기대를	-9.57011
▁조폭	-9.5703
▁감탄	-9.57048
둘	-9.57051
▁관심	-9.57065
▁심리	-9.57121
사람이	-9.57131
▁법	-9.57169
▁보는게	-9.57195
▁볼만함	-9.57213
▁볼때마다	-9.57271
▁연기력이	-9.5733
▁무섭	-9.57346
▁캐릭터들	-9.57364
▁순수한	-9.57368
람	-9.57387
▁이야기가	-9.57469
▁물론	-9.57604
▁촌	-9.57638
P	-9.57706
▁누	-9.5772
버려	-9.57768
▁저예산	-9.57768
려는	-9.5777
▁보이는	-9.57863
▁액션은	-9.57869
▁역시나	-9.58016
▁싫다	-9.58066
▁이것	-9.58094
친구	-9.58185
▁접	-9.58217
▁표	-9.58251
▁삶을	-9.58322
드리	-9.58325
던가	-9.58357
▁19	-9.58361
▁남는다	-9.58385
▁나를	-9.58398
▁보이	-9.58409
렉	-9.5843
▁보시길	-9.58507
▁희망	-9.58522
나올	-9.58522
▁OST	-9.58525
▁연애	-9.58545
콩	-9.58551
팔	-9.5856
▁다소	-9.58597
▁이정도면	-9.58621
▁캐	-9.58706
▁평생	-9.58871
허술	-9.59097
▁여자들	-9.59143
혁	-9.59155
갓	-9.5916
롱	-9.5916
▁T	-9.59164
▁전체적으로	-9.59182
활	-9.59184
▁각	-9.59321
▁갖	-9.59333
or	-9.59342
▁실제	-9.59536
재밌다	-9.59572
▁벗	-9.59612
▁음악이	-9.5962
▁멋지다	-9.59653
르는	-9.59692
▁짧	-9.59698
▁미치	-9.59741
▁보기엔	-9.59758
▁회	-9.59907
▁티비	-9.59908
▁아저씨	-9.59922
▁그다지	-9.59971
▁추천합니다	-9.60067
됬	-9.60086
▁근	-9.60087
▁호러	-9.60112
것들	-9.60175
▁나라	-9.60225
▁관계	-9.6024
수도	-9.60363
오빠	-9.60417
▁임	-9.60438
던지	-9.60487
▁몇번을	-9.60504
새끼	-9.60529
▁시원	-9.60556
▁안하고	-9.60604
▁권	-9.60621
▁슬픔	-9.6064
▁예쁜	-9.60654
▁있나	-9.6069
▁아닐까	-9.60701
▁봐야할	-9.6074
▁있다면	-9.60741
▁ᅮ	-9.60754
▁않아	-9.61008
아깝	-9.61019
!!!!!	-9.61128
▁멀	-9.61162
만화	-9.61192
▁딴	-9.61344
탁	-9.61344
덤	-9.61383
▁무엇보다	-9.61386
▁끝난	-9.61484
▁기분이	-9.61538
▁생각나는	-9.61582
▁싫	-9.61625
▁홍콩	-9.61637
버리고	-9.61647
▁뒷	-9.61699
▁맨	-9.61752
▁서로	-9.61792
▁+	-9.61856
분이	-9.61867
▁아니면	-9.61876
인의	-9.61914
▁지루해서	-9.61915
▁놀라	-9.61922
보이	-9.6194
▁용	-9.61959
▁현대	-9.6196
▁벌	-9.61989
▁진정	-9.62018
으며	-9.62029
율	-9.62066
그러	-9.62095
▁긴장	-9.62105
누나	-9.62189
▁재밋다	-9.62225
▁급	-9.62308
v	-9.62343
▁높다	-9.62357
▁받	-9.62386
취	-9.62421
킨	-9.62441
▁필요없는	-9.6245
▁고전	-9.62485
▁끝나고	-9.62509
▁오히려	-9.62756
와서	-9.62767
▁짜증나는	-9.62771
▁탈	-9.62781
▁짠	-9.62789
득	-9.62843
있어	-9.62866
휘	-9.62892
▁빼	-9.63012
▁사극	-9.63104
▁떨어지는	-9.63114
▁스토리와	-9.63115
▁봤다가	-9.63135
▁여자가	-9.63219
▁예전	-9.63228
총	-9.63236
었지만	-9.63255
끝나	-9.63282
▁아련	-9.63347
탕	-9.63392
▁드	-9.63398
▁보았	-9.63403
맞추	-9.63422
인것	-9.63435
따위	-9.63473
▁받았	-9.63522
▁I	-9.63594
▁드라마가	-9.636
흘	-9.63615
▁디즈니	-9.63656
▁압권	-9.63656
스가	-9.63666
▁고민	-9.6379
▁티비에서	-9.63844
▁나왔으면	-9.63895
▁m	-9.63903
▁긴	-9.63966
▁<	-9.6409
▁취	-9.64101
▁언제나	-9.6419
▁삶	-9.64229
▁난다	-9.6424
시고	-9.64282
▁영화관	-9.64299
▁이하	-9.64313
하다니	-9.64372
▁엉성한	-9.64419
★	-9.64425
j	-9.64425
▁살짝	-9.64462
▁몸매	-9.64468
▁붙	-9.6452
▁괴물	-9.64525
▁좋았던	-9.64537
▁부분	-9.64598
아님	-9.64645
▁용서	-9.64686
▁무지	-9.64687
▁중간	-9.64691
ᄃᄃ	-9.64793
▁죄	-9.64815
▁짓	-9.64824
▁이유가	-9.649
▁재밋게	-9.64917
▁평범한	-9.64982
▁재미있었다	-9.65023
▁프로그램	-9.6504
인생	-9.6509
웅	-9.65119
걸로	-9.65141
닝	-9.652
년전에	-9.65213
▁보여	-9.65282
▁화가	-9.6532
평점이	-9.65352
늘	-9.65371
봤어요	-9.65379
▁범인	-9.65404
▁설레	-9.65456
▁꼴	-9.65538
▁아닌데	-9.65594
힘	-9.65617
▁커	-9.65652
첨	-9.65654
▁무섭다	-9.65733
▁청	-9.65779
▁어이가	-9.65843
들고	-9.65977
더만	-9.66102
▁미래	-9.66234
흐	-9.66244
머리	-9.66263
알바	-9.66299
할듯	-9.66319
▁썩	-9.66397
▁얻	-9.66417
괜찮	-9.66469
쓴	-9.66472
▁ᄃᄃ	-9.66672
▁병	-9.66682
나고	-9.66686
▁보고싶은	-9.66739
스러움	-9.66769
▁느낀	-9.66777
내는	-9.66794
했네	-9.668
▁이건뭐	-9.6685
▁사랑스러운	-9.66875
때마다	-9.66876
▁볼수록	-9.66879
▁연기와	-9.6702
테러	-9.67025
▁없나	-9.6705
▁몇번	-9.67107
▁몰입감	-9.67153
연기가	-9.67166
▁다큐멘터리	-9.67173
진심	-9.67179
아주	-9.67191
▁사건	-9.67219
▁뮤지컬	-9.67278
봤던	-9.67303
되네요	-9.67309
감독이	-9.67324
▁그의	-9.67359
▁아깝지	-9.67398
▁드는	-9.67406
in	-9.67432
▁되게	-9.67481
▁만들어진	-9.67486
▁쓰래기	-9.6749
번째	-9.67514
폰	-9.67562
▁가볍게	-9.67562
▁드럽게	-9.67562
낼	-9.67562
▁소름돋	-9.67568
▁행동	-9.67571
▁불쾌	-9.67588
더라구요	-9.67655
▁카메라	-9.67667
♥♥	-9.67697
▁만드	-9.67828
▁동물	-9.67833
▁볼만하	-9.67843
▁낫	-9.67926
말고	-9.67999
▁다르	-9.68024
▁더이상	-9.68047
▁킬링타임	-9.68096
죄	-9.68111
▁중간중간	-9.68111
아까움	-9.68134
랜	-9.6818
▁유치함	-9.68199
▁팔	-9.68216
섭	-9.68249
▁ᄋᄋ	-9.68294
틱	-9.68356
▁귀엽	-9.68361
▁에로	-9.68361
▁힐링	-9.68363
먹고	-9.68379
까진	-9.68394
▁후반	-9.68401
▁악역	-9.68411
▁외국	-9.68443
▁같음	-9.68515
▁좋습니다	-9.68535
것은	-9.68595
▁빠	-9.68607
기분	-9.6861
되서	-9.68632
▁드라마를	-9.68658
ᅲᅲᅲᅲᅲ	-9.68684
▁스타	-9.68697
▁시걸	-9.6871
▁연기에	-9.68716
갑니다	-9.68729
▁나가	-9.68839
▁마치	-9.68901
▁짱짱	-9.68917
뜻	-9.68951
▁달리	-9.69073
쏘	-9.69164
뉴	-9.69168
▁봤으면	-9.69169
▁비주얼	-9.69169
an	-9.69169
▁능력	-9.69182
▁재미를	-9.69278
줄이야	-9.69296
▁재밌었음	-9.6939
▁사랑과	-9.69478
에서는	-9.69497
▁우정	-9.6964
▁홍	-9.69703
웃기	-9.69735
▁안됨	-9.69774
니깐	-9.69812
쾌	-9.69842
무섭	-9.69866
숭	-9.69982
▁쵝오	-9.69982
▁빈	-9.6999
▁제목이	-9.69994
▁죽는	-9.69999
▁올해	-9.70096
▁멋	-9.70103
하면서도	-9.7017
▁S	-9.70193
▁영화냐	-9.70223
▁믿을	-9.70256
▁오버	-9.70336
▁찍어	-9.70368
▁춤	-9.70393
봣는데	-9.70427
▁재미없어요	-9.70464
▁유치하다	-9.70553
▁말로	-9.7061
볼만	-9.70648
어지는	-9.70657
딸	-9.70676
B	-9.70679
방송	-9.70687
▁봤었	-9.70702
스릴러	-9.70712
▁폭	-9.70759
▁못하고	-9.70783
점준	-9.70914
생활	-9.70962
▁군대	-9.70973
▁제작진	-9.71006
▁감동과	-9.71048
▁영화보고	-9.71052
▁빛	-9.71123
웠다	-9.71224
시킨	-9.71292
한다는	-9.71323
안에	-9.71324
▁12	-9.71375
▁부분이	-9.71388
▁열심히	-9.71406
▁출	-9.71497
▁전에	-9.71566
▁퀄리티	-9.71589
▁싸구려	-9.71628
▁리뷰	-9.71637
▁먼	-9.71667
▁함	-9.71673
▁영화이다	-9.71705
시는	-9.71733
▁미안	-9.71779
생겼	-9.71823
▁하게	-9.71888
용으로	-9.71939
▁전달	-9.7199
▁소녀	-9.72017
하는지	-9.72045
▁옛날에	-9.7209
▁내용을	-9.721
▁소재를	-9.72199
▁나중에	-9.72212
쳤	-9.72213
V	-9.72236
폭	-9.72305
▁포기	-9.7232
편보다	-9.72338
▁해야	-9.72348
▁경찰	-9.72386
좋고	-9.72427
항	-9.72458
▁펑펑	-9.72459
▁해피엔딩	-9.72461
틈	-9.72461
▁70	-9.72463
▁와우	-9.72469
▁가끔	-9.72507
▁생애	-9.72519
▁과연	-9.72537
▁슬프고	-9.72569
▁느와르	-9.72682
▁있지	-9.72691
프로	-9.72727
▁처음엔	-9.72739
▁할말이	-9.72769
▁화려	-9.72784
▁킬링타임용으로	-9.72787
▁볼만하다	-9.72809
▁달라	-9.72859
▁기본	-9.72954
▁미드	-9.72959
▁다행	-9.73
▁모습을	-9.73048
▁어쩔	-9.73078
.......	-9.73094
▁같아	-9.7311
▁볼거리	-9.73223
엘	-9.7327
캐	-9.73281
▁송	-9.73341
▁말할	-9.73352
▁스토리를	-9.73395
것만	-9.73438
▁통해	-9.73449
▁삶의	-9.73459
내용이	-9.73501
▁결과	-9.73566
▁풀어	-9.73575
▁덜	-9.73594
▁쫌	-9.73712
는건지	-9.73872
▁게이	-9.7388
▁이제야	-9.73882
▁하는데	-9.73886
▁보고싶	-9.73899
▁나서	-9.73906
였지만	-9.73956
험	-9.7402
많은	-9.74073
▁흘러	-9.74099
▁진심으로	-9.74102
골	-9.74117
굴	-9.74132
▁시사회	-9.74183
필요	-9.74189
▁방금	-9.74211
▁올리	-9.7424
▁사랑에	-9.74258
시간에	-9.74419
▁몰입이	-9.74507
▁영화지만	-9.74509
▁그들의	-9.74533
중의	-9.74573
▁헛	-9.74584
님의	-9.74706
........	-9.74819
▁현실성	-9.74897
▁굿굿	-9.74911
즘	-9.74941
뿌	-9.74955
X	-9.74992
홀	-9.74995
▁눈빛	-9.75022
▁친	-9.7503
▁남기	-9.75071
▁ᅲᅲᅲ	-9.75149
▁40	-9.75207
O	-9.75232
▁d	-9.75232
▁웃기고	-9.75291
▁잔잔하고	-9.75324
공포	-9.75331
빼고	-9.75334
▁열정	-9.7548
▁어제	-9.75488
자체	-9.75536
on	-9.75609
▁개판	-9.75628
▁공감이	-9.75692
신이	-9.75702
▁국	-9.75784
▁기대안하고	-9.75868
▁자신	-9.75902
끈	-9.75931
▁찡	-9.75935
A	-9.75959
▁분노	-9.75962
▁포장	-9.76072
▁봣는데	-9.76121
▁음악도	-9.76165
▁소재가	-9.76369
잃	-9.76423
11	-9.76451
▁또한	-9.76459
▁이거보고	-9.76494
기엔	-9.76514
▁운	-9.76591
겹	-9.76636
잤	-9.76708
밑	-9.76709
▁실패	-9.7672
▁듣	-9.76725
농	-9.76735
힐	-9.76735
R	-9.76735
냥	-9.76736
(?)	-9.76737
re	-9.76753
▁페	-9.76774
▁다시한번	-9.7687
▁잭	-9.76889
가슴	-9.76906
▁해주	-9.77001
▁그렇다	-9.77006
영화로	-9.77038
▁사람을	-9.77052
▁초반에	-9.77066
하려고	-9.77138
▁팬이	-9.77154
해준	-9.77162
한게	-9.77164
▁메시지	-9.77199
▁그린	-9.77286
학생	-9.77308
▁죽어	-9.77473
무비	-9.77477
▁남아	-9.77565
▁죽여	-9.77569
벽	-9.77585
@	-9.77601
헤	-9.77605
`	-9.77612
▁저렇게	-9.77612
▁레전드	-9.77613
▁섹스	-9.77618
▁통쾌	-9.77625
▁보러	-9.77625
높	-9.77673
▁느끼는	-9.77675
ᄏᄏᄏᄏᄏᄏᄏᄏᄏᄏᄏᄏᄏᄏᄏᄏ	-9.77679
▁재미있었어요	-9.77694
케이	-9.77716
으론	-9.77729
▁영국	-9.77766
형님	-9.77768
함과	-9.77803
▁아직까지	-9.77803
▁매력있	-9.77814
▁힘들다	-9.77827
▁지루할	-9.77828
▁인기	-9.7785
▁식상	-9.7794
▁만든다	-9.77957
▁잊혀지지	-9.78125
▁봣	-9.78132
▁배우의	-9.78138
▁느낄수	-9.78202
온다	-9.78211
▁괜찮았	-9.78251
▁폭력	-9.78256
▁푹	-9.78259
▁c	-9.78277
워서	-9.78308
점수	-9.78352
형제	-9.78433
있네	-9.78451
▁민	-9.78495
]	-9.78497
▁뜬금없	-9.78497
▁아름다움	-9.78497
오브	-9.78498
!!!!!!!!!	-9.78498
▁나오고	-9.78501
▁결	-9.78507
하구	-9.78526
상을	-9.78575
▁베스트	-9.78575
▁반전도	-9.78681
M	-9.78715
개봉	-9.78753
하려는	-9.78762
받고	-9.78764
거같	-9.78826
속에서	-9.78868
프리	-9.78985
하는것	-9.7902
막장	-9.79119
▁만큼	-9.79166
ᅲᅮ	-9.79234
N	-9.79289
째	-9.79318
협	-9.79327
▁시대를	-9.79336
▁헐리우드	-9.7939
▁로그인	-9.79391
▁따뜻해지는	-9.79419
나와서	-9.7942
▁죽을	-9.79421
▁종교	-9.79435
▁마세요	-9.79498
▁아는	-9.79543
▁헤	-9.7955
▁즐겁게	-9.79552
잠	-9.79605
▁사랑하는	-9.79606
▁이쁜	-9.79716
▁낮아서	-9.79734
구성	-9.79774
스럽	-9.79934
영화의	-9.79964
▁꾸	-9.79969
▁무서워	-9.80004
▁좋아서	-9.80022
영화라고	-9.80024
▁나타	-9.80111
▁빌려	-9.80159
▁젊은	-9.8023
▁인생을	-9.80235
▁든다	-9.80259
자는	-9.80281
솔	-9.80289
▁견자단	-9.80291
▁뛰어난	-9.80321
▁안되고	-9.80395
▁자막	-9.80422
할까	-9.80432
▁최근	-9.8046
OOO	-9.80461
▁아쉬움	-9.80466
주고싶	-9.80475
폐	-9.80569
낫	-9.80588
같음	-9.80603
착	-9.80603
▁이기	-9.80606
▁산으로	-9.80694
▁안타깝다	-9.8087
▁필	-9.80883
▁했던	-9.80964
▁칼	-9.80974
찾	-9.80982
겟다	-9.81028
▁가진	-9.81061
▁의리	-9.81066
재밌음	-9.81096
▁정말로	-9.81109
▁역할	-9.81132
▁발로	-9.81162
▁시시	-9.81185
▁시트콤	-9.812
▁어려운	-9.81201
▁희생	-9.81211
스러웠	-9.81213
▁합	-9.8125
▁남을	-9.81293
님이	-9.81297
▁고생	-9.81364
▁올라	-9.81392
접	-9.81432
▁굳이	-9.81478
고싶어	-9.8148
▁의심	-9.81488
▁독특	-9.81489
짜증	-9.81495
▁유쾌하고	-9.81511
▁출연진	-9.81515
.........	-9.81611
▁몰라도	-9.8167
▁평이	-9.81765
▁쩐다	-9.81866
▁높아	-9.81867
씨가	-9.81913
▁없지만	-9.82099
균	-9.821
콜	-9.82102
떄	-9.82117
톱	-9.82118
▁즐거운	-9.82118
▁헐리웃	-9.82118
댄	-9.82118
컷	-9.82118
▁생생	-9.82191
내용도	-9.82313
▁우와	-9.82328
▁빠지	-9.82401
▁생각없이	-9.82446
▁가득	-9.82451
긴한데	-9.82467
▁광고	-9.82473
▁여러	-9.82486
▁딱히	-9.82501
▁탄탄한	-9.82522
이유	-9.82544
아요	-9.82653
젠	-9.82654
보자	-9.82699
▁어렸을	-9.82786
무엇	-9.82875
st	-9.82962
▁야한	-9.82977
딩	-9.83006
방식	-9.83016
▁긴장감도	-9.83037
붕	-9.83043
ᅵ	-9.83044
▁짝퉁	-9.83044
▁둘다	-9.83045
포인트	-9.83049
▁나머지	-9.83051
▁연출도	-9.83114
"""	-9.83123
스럽고	-9.83126
ᄋᄋ	-9.83181
웨	-9.83191
▁단연	-9.83197
▁눈물을	-9.83205
명이	-9.83211
도아니고	-9.8322
▁보길	-9.83292
▁지루했다	-9.83294
▁전투	-9.83322
▁안돼	-9.8335
▁나쁘지	-9.83392
있음	-9.8344
나오네	-9.83451
세기	-9.83484
리지	-9.83536
표현	-9.83556
▁죽이	-9.83562
▁불쌍	-9.83573
했나	-9.83582
▁정서	-9.8369
▁울었다	-9.83957
▁청소년	-9.83978
▁할말	-9.8398
▁재밌을	-9.84
▁에휴	-9.84027
▁잔인한	-9.84039
▁점수를	-9.84062
▁악당	-9.84092
▁사는	-9.84153
▁멋있다	-9.84176
▁환상	-9.84216
마리	-9.84228
혼	-9.8424
▁끄	-9.84271
▁이유는	-9.84373
장난	-9.84374
버림	-9.84481
▁되었	-9.84527
▁투자	-9.84585
▁많았	-9.84652
▁찍었	-9.8474
▁앤	-9.84747
▁뒤로	-9.84757
▁이런영화가	-9.84759
▁그려	-9.8481
er	-9.84845
▁있어요	-9.84876
릿	-9.8491
감을	-9.84915
텔	-9.84922
스러워	-9.84955
그래	-9.84981
▁돋	-9.8499
집니다	-9.8506
사람은	-9.85065
▁많아	-9.85071
▁맘	-9.85072
식으로	-9.85179
▁생각한다	-9.85192
▁아나	-9.85194
계의	-9.85295
▁받아	-9.85296
▁"""	-9.85408
ᄌ	-9.85434
젤	-9.85445
..........	-9.85482
메이	-9.85514
스의	-9.85562
사이	-9.85622
극장	-9.85645
▁판	-9.85731
콤	-9.85874
▁의외로	-9.85894
▁무엇을	-9.85903
▁흐름	-9.85904
▁자극	-9.8596
▁끝나는	-9.86035
▁홍보	-9.86045
기억	-9.86049
▁넣	-9.86071
정이	-9.86173
면에서	-9.86178
▁생각합니다	-9.86278
▁진부	-9.86305
감동적	-9.86355
들만	-9.86423
▁당시에	-9.86453
답답	-9.86457
▁식	-9.86481
엄마	-9.86509
나와	-9.86513
한것	-9.86591
▁왜케	-9.86599
▁죄다	-9.86622
에서도	-9.86626
느라	-9.86647
▁이루	-9.86687
스타일	-9.86688
▁밥	-9.86718
▁중반	-9.86774
▁많다	-9.86794
엔딩	-9.86812
시다	-9.86819
ᄇ	-9.86821
혈	-9.86836
▁007	-9.86837
▁위대한	-9.86837
▁마이클	-9.86841
가지고	-9.8688
▁상처	-9.8689
▁주인공의	-9.86891
▁어휴	-9.86937
있는데	-9.86941
일이	-9.86984
▁학교에서	-9.86987
▁오글거리	-9.86997
▁지나치	-9.86999
▁핵	-9.87014
▁옛	-9.87025
원작	-9.87027
▁직	-9.87031
▁평범	-9.8715
▁되었다	-9.87183
▁미소	-9.87218
▁여기서	-9.87271
▁하루	-9.87291
▁잼있다	-9.87407
▁연속	-9.87419
▁쓸	-9.87471
▁망한	-9.87495
▁무비	-9.87501
▁모든게	-9.87628
▁빌	-9.87662
▁발전	-9.87739
노래	-9.87789
멘	-9.87806
▁주성치	-9.87808
전쟁	-9.87827
▁북한	-9.87842
▁영화에요	-9.87949
▁내려	-9.8797
사가	-9.88003
져서	-9.88007
▁중요한	-9.88013
▁무시	-9.88014
▁이쁘고	-9.88019
하지도	-9.8814
현실	-9.88146
▁안타깝	-9.88159
했네요	-9.88161
얘기	-9.88165
▁심장	-9.88191
▁이쁘다	-9.88224
▁돌아가	-9.88266
만드는	-9.88297
▁아침	-9.88309
▁보니까	-9.8833
끌	-9.8834
친다	-9.88354
▁늘어	-9.88379
하셨	-9.88388
되었	-9.88402
닌	-9.88406
캐릭터	-9.88484
▁진리	-9.88535
흥	-9.88536
▁있네요	-9.88543
▁뜨	-9.8855
▁영화였어요	-9.88565
▁울었	-9.88594
▁라는	-9.88604
▁끊	-9.88607
▁드라마는	-9.88674
관계	-9.88744
인가요	-9.88766
값	-9.88774
▁어른	-9.88786
▁무언가	-9.88789
▁자신의	-9.88824
▁어머니	-9.88833
▁결말도	-9.88853
▁웃김	-9.8887
▁소재로	-9.88879
▁코난	-9.88916
영화임	-9.88964
▁남녀	-9.8897
이해	-9.88981
▁꽃	-9.88998
안되는	-9.89105
시키는	-9.89162
▁이후로	-9.89178
▁전문가	-9.89188
슬퍼	-9.89195
연기도	-9.89198
봉	-9.89206
▁노답	-9.89242
려면	-9.89277
▁이따위	-9.89286
▁풍	-9.89382
▁틀	-9.89395
ᅮᅮᅮ	-9.89396
▁매력적이	-9.89398
이며	-9.89417
꿀잼	-9.89427
▁결말은	-9.89483
떠	-9.89492
▁못했다	-9.895
하더라	-9.89502
▁보지마	-9.89532
▁다만	-9.89601
부족	-9.89633
▁특이	-9.89721
▁어렵	-9.89738
뛰	-9.89754
헌	-9.89777
▁마이너스	-9.89777
땡	-9.89777
▁보고나면	-9.89787
한다면	-9.89808
▁살아있	-9.89819
▁발견	-9.89821
▁;;	-9.89845
▁히	-9.89853
▁달달	-9.89867
매력	-9.89879
학교	-9.89893
▁있습니다	-9.89958
▁명품	-9.89968
▁이때	-9.90037
▁동생	-9.90067
▁있게	-9.90093
일본	-9.90158
▁건지	-9.90188
▁영화에서	-9.90301
▁나옴	-9.90337
▁사기	-9.90353
▁좋지만	-9.90369
▁알겠	-9.90382
▁한국인	-9.90382
▁과정	-9.90449
▁지금은	-9.90469
▁채	-9.9047
▁가지	-9.90492
▁잊지	-9.90523
▁끝이	-9.90569
슬프	-9.90611
▁멍청한	-9.90632
▁인생의	-9.90652
쌍	-9.90731
옹	-9.90761
탐	-9.90777
털	-9.90777
▁흥미로운	-9.90791
▁흔한	-9.90806
▁연결	-9.90866
지지	-9.90896
력이	-9.90969
▁한국영화는	-9.90988
었어	-9.91011
▁문화	-9.91035
계속	-9.91035
▁최고입니다	-9.91042
▁전체	-9.91071
였어	-9.91089
▁나왔다	-9.91102
따라	-9.91186
▁않게	-9.91231
었고	-9.91246
▁예쁘	-9.91339
▁그럼	-9.91359
보지	-9.91416
▁단순한	-9.91461
▁보아	-9.91553
정신	-9.91558
▁손발이	-9.91566
빙	-9.91569
▁만들고	-9.91631
▁왠	-9.91631
▁빼고	-9.91681
▁월	-9.91689
▁뻔하고	-9.91712
▁슈퍼	-9.91772
렷	-9.91787
▁젠장	-9.91791
ᄏᄏᄏᄏᄏᄏᄏᄏᄏᄏᄏᄏᄏ	-9.91801
▁반개도	-9.91839
▁웃기지도	-9.91845
▁최강	-9.91867
▁아픔	-9.91875
▁표현한	-9.91946
빼곤	-9.9195
▁몰입해서	-9.91994
해진다	-9.9206
▁시간을	-9.92069
▁엉망	-9.92096
있나	-9.9214
▁음악과	-9.92181
▁말을	-9.92227
쉽	-9.92318
▁싶네요	-9.92326
▁아마	-9.92337
▁철	-9.92386
점정도	-9.9253
▁신선하고	-9.92543
▁케이블	-9.92625
▁빼고는	-9.92635
▁개인	-9.9265
▁솔직	-9.92742
보는내내	-9.92749
▁13	-9.92752
녕	-9.92807
▁뭉클	-9.92808
▁김기덕	-9.92808
▁the	-9.92808
▁반성	-9.92817
▁쉽게	-9.92821
아쉽	-9.92835
왔는데	-9.92861
▁웃음이	-9.9288
▁재밌던데	-9.92941
▁못해	-9.93036
▁차이	-9.93069
▁보았다	-9.93102
▁아쉽네요	-9.93118
▁느꼈	-9.9312
로써	-9.93168
▁현실적인	-9.93174
▁속에	-9.93244
▁우주	-9.93338
▁맡	-9.93424
▁오바	-9.93445
▁쓰레기같은	-9.93471
▁보인다	-9.9348
적은	-9.93559
더라면	-9.93566
▁f	-9.93644
▁받을	-9.93682
▁크게	-9.93716
▁50	-9.93753
갈수록	-9.93776
▁봤더니	-9.93838
이런영화	-9.93846
대사	-9.93909
드러	-9.93981
▁꼽	-9.93993
뻔한	-9.94016
▁무협	-9.94078
▁극치	-9.94102
겨울	-9.9414
▁신파	-9.9417
하려	-9.94173
엇다	-9.94197
▁국내	-9.94245
했다는	-9.94285
되면	-9.94299
▁미모	-9.9431
▁괜찮은데	-9.94317
빡	-9.94318
▁순수	-9.94359
▁감동적이다	-9.94394
▁빵점	-9.9449
▁나오면	-9.9451
▁루	-9.94513
남는	-9.94529
했으나	-9.9456
식이	-9.94569
▁우리가	-9.9461
▁끼	-9.94703
▁[	-9.94739
▁살리	-9.94824
하기만	-9.94853
▁벌써	-9.94898
▁느낌을	-9.94907
▁국민	-9.94933
▁레알	-9.94936
하지마라	-9.9496
▁시각	-9.95014
뭔	-9.95022
▁좋았을	-9.95026
▁멍청	-9.95041
▁남자가	-9.95067
▁좀더	-9.95086
?!	-9.95139
▁끌어	-9.95149
▁떠나서	-9.95191
▁잔	-9.95218
▁없는데	-9.95318
사회	-9.95334
▁쓰레기다	-9.95374
▁집에서	-9.95441
▁감동적	-9.95518
▁않지만	-9.95526
▁ᄋ	-9.95551
▁모르	-9.95688
▁콩	-9.95748
▁비슷	-9.95832
로우	-9.95892
컬	-9.95929
줄알았	-9.9593
뚱	-9.95932
컨	-9.95932
▁포르노	-9.95933
▁훈훈한	-9.95964
해주세요	-9.95999
▁시도	-9.96008
▁역대급	-9.96027
▁사람의	-9.96039
대는	-9.96042
▁이래	-9.9605
▁무척	-9.96104
▁현실적이	-9.96163
~~~~~~~~	-9.96186
▁부족하다	-9.96207
▁떨어지	-9.96212
▁주말	-9.9628
▁관한	-9.96293
▁가서	-9.96315
▁공부	-9.96325
장면이	-9.96395
▁되지	-9.96461
쁜	-9.96491
▁진부하고	-9.96545
▁이해할	-9.96557
냈	-9.96565
만큼은	-9.96587
잔인	-9.96715
▁질리지	-9.96726
▁무서웠	-9.96736
▁없지	-9.96776
▁아줌마	-9.96901
▁지루하게	-9.96956
▁낳	-9.96995
넹	-9.96996
팀	-9.96996
떼	-9.96996
퀴	-9.96996
▁연예인	-9.96997
▁더러운	-9.96998
몽	-9.97008
▁볼수있	-9.97017
▁새롭	-9.97018
넣	-9.97022
돋	-9.97025
▁민망	-9.97039
▁울고	-9.97073
♥♥♥	-9.97132
▁조합	-9.97155
▁잼있어요	-9.97209
끝까지	-9.97251
수있는	-9.97274
▁풀	-9.97312
셔서	-9.97318
▁적당	-9.9732
아니다	-9.97336
▁배우들도	-9.97406
씬은	-9.97416
까지는	-9.97426
하신	-9.97458
하는건	-9.97498
▁한심	-9.97512
▁채널	-9.97642
▁있으면	-9.97655
▁한참	-9.97692
▁샤	-9.97799
▁안보고	-9.97909
▁꿈을	-9.97939
▁잊을	-9.97978
택	-9.97995
자의	-9.9802
▁줌	-9.98026
▁영화인듯	-9.98059
▁흥	-9.98067
▁러닝타임	-9.98072
만의	-9.98108
▁꽝	-9.98119
▁맨날	-9.98124
▁무섭지도	-9.9813
G	-9.98134
쥐	-9.98148
▁기다리	-9.98152
I	-9.98158
▁상업	-9.98165
와는	-9.9823
보네	-9.98332
ᄏᄏᄏᄏᄏᄏᄏᄏᄏᄏ	-9.98356
치곤	-9.98404
▁시청	-9.98434
▁한데	-9.98622
▁재미잇	-9.98733
▁삶에	-9.98776
지도않고	-9.989
▁최대	-9.98998
낀	-9.99148
이자	-9.9915
어라	-9.99157
▁아름다웠	-9.99159
▁묘사	-9.99173
ing	-9.99183
봐요	-9.99206
▁찌질	-9.99226
몰입	-9.99271
거라	-9.99272
밥	-9.99291
시작	-9.99364
▁의문	-9.99377
▁지구	-9.9941
▁뜻	-9.99435
연기력	-9.99438
줬다	-9.9944
▁못한다	-9.99466
▁영어	-9.99483
ᄏᄏᄏᄏᄏᄏᄏ	-9.99489
에대한	-9.99545
▁괜찮다	-9.99613
it	-9.99617
▁조연	-9.99634
▁오글	-9.99686
▁진지	-9.99706
▁ᄏᄏᄏᄏᄏᄏ	-9.9978
▁철학	-9.99815
▁아이가	-9.99854
▁힘이	-9.99948
편의	-9.99969
▁올려	-9.99977
제작	-10.0004
텐	-10.0016
▁인도	-10.0022
▁어린이	-10.0023
▁카리스마	-10.0026
롤	-10.0026
칙	-10.0026
▁싸이코	-10.0026
▁필름	-10.0028
▁여행	-10.0028
▁놈	-10.0028
▁변태	-10.0032
▁지켜	-10.0033
▁인상적이	-10.0034
똥	-10.0034
▁일품	-10.0036
이라서	-10.0037
아쉬	-10.0037
▁하나하나	-10.004
▁졸리	-10.0043
나가는	-10.0043
▁박수를	-10.0049
▁남겨	-10.0056
▁원작의	-10.0057
▁혼	-10.006
▁인간이	-10.0061
▁제로	-10.0063
우리	-10.0064
▁논	-10.0067
수없는	-10.0074
."	-10.0076
▁왜이래	-10.0082
버리는	-10.009
▁퍼	-10.009
▁쇼	-10.0095
제발	-10.0096
님들	-10.0097
▁억지스럽	-10.0102
▁보자	-10.0103
해진	-10.0108
않다	-10.0112
지를	-10.0117
en	-10.0121
공감	-10.0133
▁쩝	-10.0134
▁초등학생	-10.0137
례	-10.0137
▁크리스마스	-10.0137
▁불구하고	-10.0137
▁더불어	-10.0137
▁검색	-10.0138
기에는	-10.0149
있었	-10.0151
▁니들	-10.0151
▁사랑이야기	-10.0152
▁지루하기	-10.0154
봅니다	-10.0159
▁모르겠지만	-10.0161
시즌	-10.0165
▁드립니다	-10.0181
본영화	-10.0185
이었음	-10.0186
세상	-10.0186
▁못할	-10.0187
▁추억이	-10.0189
편에	-10.0199
버릴	-10.0202
▁명작입니다	-10.0206
쟁이	-10.0207
▁a	-10.0208
▁만든영화	-10.0223
▁아역	-10.0223
▁영화라는	-10.0225
했었는데	-10.0231
▁나오지	-10.0246
뽕	-10.0249
▁기독교	-10.0249
▁아까울	-10.0249
냄새	-10.025
▁좋았으나	-10.0251
좋아하는	-10.0252
▁복잡	-10.0252
뭔가	-10.0259
▁잼없	-10.0262
▁인간들	-10.0262
내고	-10.0264
▁그걸	-10.0266
▁설마	-10.0267
하던데	-10.0267
▁최소	-10.0276
▁없었던	-10.0276
지말고	-10.0277
샤	-10.0278
이였다	-10.028
▁착	-10.0281
자체가	-10.0281
▁가면	-10.0286
▁누구나	-10.0289
▁작가가	-10.0309
▁거지	-10.0309
▁하네요	-10.0316
소설	-10.0317
▁친구들	-10.0332
▁비디오로	-10.0339
▁잊을수	-10.034
줘서	-10.0341
▁찌	-10.0347
▁시리즈중	-10.0354
▁주기	-10.0356
기위해	-10.0356
ᅥ	-10.0363
랫	-10.0363
▁크리스	-10.0366
▁개뿔	-10.0366
▁좋겠어요	-10.0369
▁인물들	-10.0369
▁한번쯤	-10.0372
▁영화인	-10.0373
▁의미를	-10.0379
라이언	-10.038
지네요	-10.0383
▁대사가	-10.0384
머니	-10.0387
해야지	-10.0388
그리	-10.0391
중에서	-10.0393
빌	-10.0397
듣	-10.0397
▁끝났	-10.0404
놨	-10.0416
▁낮다	-10.0417
▁보시	-10.0421
▁중요	-10.0426
▁유명한	-10.0429
..;;	-10.0432
적이다	-10.0435
▁점수가	-10.0438
▁홍콩영화	-10.044
~!!!	-10.0445
했었	-10.0448
▁시청자	-10.045
▁안나	-10.0452
잖	-10.0453
▁안맞	-10.0459
년만에	-10.0463
좋음	-10.0464
▁재미있어	-10.0466
▁재미있었	-10.0467
▁유명	-10.0472
흡	-10.0475
▁한명	-10.0476
점줌	-10.0476
▁싶지	-10.0478
둔	-10.0478
옷	-10.0478
탓	-10.0478
▁훈훈하	-10.0478
▁퇴	-10.0479
▁방법	-10.0482
▁양심	-10.0489
베리	-10.0489
▁고통	-10.049
할수있	-10.0494
공포영화	-10.0495
배우가	-10.0497
특	-10.0502
▁뭐라	-10.0511
▁기대했는데	-10.0514
허접	-10.0516
쓸	-10.0517
는것도	-10.052
▁멍	-10.052
▁웃기다	-10.0523
편도	-10.054
▁필요한	-10.054
끼리	-10.0541
▁장면에서	-10.0541
씨의	-10.0544
▁필요없	-10.0547
▁가져	-10.0549
▁작품을	-10.0553
▁이해하기	-10.0555
▁이유를	-10.0556
▁전설의	-10.0559
▁좋아해서	-10.0566
ar	-10.0578
▁십	-10.0581
▁O	-10.0584
▁들었	-10.0584
야한다	-10.0592
▁좋게	-10.0594
렁	-10.0594
폼	-10.0594
▁시간가는줄	-10.0594
▁패러디	-10.0594
▁로봇	-10.0595
▁빈약	-10.0596
▁보기에	-10.0602
▁할까	-10.0606
▁비극	-10.0613
▁낚시	-10.062
▁이럴	-10.063
▁사랑은	-10.063
한국	-10.063
쓰레기영화	-10.0633
▁자살	-10.0638
밤	-10.0639
었네	-10.0645
▁즐기	-10.0647
울리	-10.0662
그래서	-10.0663
억지	-10.0667
렬	-10.0669
다는게	-10.0671
▁틀어	-10.0672
지않고	-10.0675
막히	-10.0678
재미없음	-10.0678
▁18	-10.0679
내내	-10.0681
는거야	-10.0686
편을	-10.0687
▁살려	-10.0689
티비	-10.0694
▁평점보고	-10.07
감독님	-10.0701
저리	-10.0703
▁망치	-10.0705
▁감동의	-10.071
ᄎ	-10.0712
깍	-10.0712
삐	-10.0712
K	-10.0712
쭉	-10.0712
z	-10.0712
무서움	-10.0713
것같	-10.0713
훈훈	-10.0713
오래	-10.0715
▁느껴진다	-10.0715
▁가능	-10.0716
▁장면들	-10.0717
점이다	-10.0718
▁세월	-10.072
▁싶었	-10.0724
▁존경	-10.0724
▁개막장	-10.0724
▁있구나	-10.0727
앞	-10.073
▁되고	-10.0731
하시는	-10.0731
▁떨어진다	-10.0734
▁잼잇	-10.0735
으려	-10.0748
시길	-10.0748
▁낮네	-10.075
▁따뜻	-10.0754
▁가슴에	-10.0754
▁좋아할	-10.0755
▁재미와	-10.0757
▁작품이다	-10.0758
<	-10.0761
겠네요	-10.0764
했을까	-10.0772
▁말하는	-10.0774
▁워	-10.0783
▁오랜만	-10.0785
▁본거	-10.0785
▁작은	-10.0787
겠음	-10.0795
나올때	-10.0795
사는	-10.0797
놔	-10.0811
없는영화	-10.0819
▁ᄏᄏᄏᄏᄏᄏᄏ	-10.082
랄까	-10.0821
▁어릴	-10.0821
▁전쟁영화	-10.0825
닮	-10.0826
▁사랑의	-10.0828
멸	-10.0831
▁외계인	-10.0831
▁바뀌	-10.0832
▁기다려	-10.0833
▁어린시절	-10.0833
▁감흥	-10.0833
겁니다	-10.0836
▁낚였다	-10.0837
▁폴	-10.0839
▁같아서	-10.0841
▁야동	-10.0854
▁재미있습니다	-10.086
▁잘봤어요	-10.086
▁형님	-10.0864
▁간다	-10.0865
▁허세	-10.0865
▁착한	-10.0873
없어서	-10.0878
▁한심한	-10.0886
차라리	-10.089
주면	-10.089
얼굴	-10.089
짜증나	-10.0899
잇는	-10.09
▁무리	-10.0902
스크	-10.0906
▁헤어	-10.0914
하기엔	-10.0917
▁덕분에	-10.0922
있냐	-10.0926
보고싶다	-10.0926
시대에	-10.093
의미	-10.0945
뽑	-10.0947
지루함	-10.0948
▁부르	-10.0948
셀	-10.0951
엠	-10.0951
쿨	-10.0951
▁깜짝	-10.0951
▁겨우	-10.0955
▁죽는줄	-10.0955
▁최초	-10.0959
▁개봉한	-10.0965
랜드	-10.0968
▁엄	-10.097
▁명화	-10.0983
▁잼나게	-10.0985
▁ᄉ	-10.0999
▁연기력도	-10.1
▁깔끔	-10.1002
새끼들	-10.1003
같아	-10.101
맥	-10.1015
같네	-10.1016
▁긴장감이	-10.1024
하하하	-10.1032
▁보려고	-10.1036
▁못하다	-10.1043
스키	-10.1044
▁용기	-10.105
겠어요	-10.1055
룡	-10.1059
것인가	-10.1061
▁척	-10.1062
▁보지말	-10.1066
▁뿐이다	-10.1068
꾼	-10.1073
깜	-10.1073
▁에피소드	-10.1073
▁왠만하면	-10.1073
▁고양이	-10.1074
▁색다른	-10.1074
▁교육	-10.1075
▁영원히	-10.1077
▁풍경	-10.1078
▁학교	-10.1087
▁본영화	-10.1095
▁최고임	-10.1095
보구	-10.1103
▁그녀의	-10.1111
▁눈에	-10.1116
살아	-10.1132
▁원작이	-10.1133
▁재미없었다	-10.1135
▁행복한	-10.1137
년도에	-10.114
꼴	-10.1143
인건	-10.1145
▁미쳤	-10.1147
▁야구	-10.1147
▁도전	-10.116
▁넘치는	-10.1161
▁한마디	-10.1164
▁개성	-10.1165
▁뇌	-10.1166
속의	-10.1169
▁하는지	-10.1169
▁199	-10.1172
부작	-10.1174
▁D	-10.1179
▁봤네	-10.1179
닐	-10.1179
기로	-10.1182
▁단지	-10.1186
하는영화	-10.1189
륜	-10.1194
뮤	-10.1197
긋	-10.1197
켓	-10.1197
▁아까웠다	-10.1199
뭐야	-10.12
▁자식	-10.1201
▁특별한	-10.1202
▁그저그런	-10.1202
▁으리	-10.1202
▁갈등	-10.1205
▁빠진	-10.1207
▁여름	-10.1208
▁보긴	-10.121
!!!!!!	-10.1219
▁갔	-10.122
▁기대이상	-10.1222
▁훌륭하다	-10.1225
▁보통	-10.123
▁감히	-10.1231
▁피해자	-10.1234
▁맹	-10.124
고싶은	-10.125
▁어른들	-10.125
대단	-10.1257
▁쿠	-10.1258
▁이것이	-10.126
▁생각함	-10.1261
잔잔	-10.1265
▁답답한	-10.1269
F	-10.1271
드립니다	-10.1277
▁:	-10.1279
요즘	-10.128
▁그렇다고	-10.1282
▁그렇지	-10.1285
..^^	-10.1286
기법	-10.1298
거면	-10.13
▁지나도	-10.1302
▁뛰어	-10.1304
▁잊	-10.1307
였고	-10.1318
춰	-10.132
▁블랙	-10.1321
팅	-10.1321
▁캬	-10.1322
섯	-10.1322
▁중에서	-10.1322
▁핵노잼	-10.1323
▁보여준다	-10.1324
▁전개도	-10.1324
이걸	-10.1324
▁극장가서	-10.1324
히어로	-10.1324
▁참신한	-10.1325
▁애기	-10.1326
빨리	-10.1327
오글	-10.1329
▁ᄏᄏᄏᄏᄏᄏᄏᄏ	-10.133
▁보았습니다	-10.1333
▁전율	-10.1333
▁밤	-10.1334
▁그당시	-10.1336
▁기술	-10.1337
▁외모	-10.1339
▁알려	-10.1341
▁들었다	-10.1345
▁좋았지만	-10.1347
간의	-10.1347
▁짜증난다	-10.1349
자나	-10.1351
▁싶은데	-10.1352
bb	-10.1353
절대	-10.1356
▁부모	-10.1359
▁조카	-10.1362
냈다	-10.1373
같지	-10.1374
▁탑	-10.1375
▁못함	-10.1376
▁때문	-10.1377
▁재밌다고	-10.1377
으로써	-10.1384
200	-10.1387
▁생각하는	-10.139
▁최고였다	-10.1391
럴	-10.1392
▁소름이	-10.1392
▁결론	-10.1396
맹	-10.1404
덜	-10.1404
겠습니다	-10.1406
▁찬	-10.141
영화인데	-10.1415
기까지	-10.1419
만듬	-10.1424
▁없어요	-10.1431
마지막에	-10.1434
때매	-10.1435
▁빠져들	-10.1437
하기도	-10.1439
빅	-10.1448
H	-10.1448
▁봤을때	-10.1448
▁무엇인지	-10.1448
▁몇몇	-10.145
매니아	-10.1451
▁재미없게	-10.1453
▁다룬	-10.1457
▁승	-10.1459
le	-10.1462
어여	-10.1462
▁아니야	-10.1463
올리	-10.1466
▁충격적이	-10.1471
!!!!!!!!!!!!!!!!	-10.1473
▁해석	-10.1474
▁악마	-10.1474
▁이미지	-10.1478
▁장르가	-10.1483
감독의	-10.1483
▁만들면	-10.149
▁완전히	-10.149
▁견	-10.1491
▁아이돌	-10.1501
었네요	-10.1502
▁공포물	-10.1503
▁오락	-10.1506
▁멋지	-10.1508
끄	-10.1512
▁웃고	-10.1512
▁잼나	-10.1513
잡고	-10.1513
▁감정을	-10.1514
▁가치가	-10.1515
▁에로영화	-10.1524
▁들어가	-10.1525
▁일이	-10.153
▁어이	-10.1532
▁조화	-10.154
재밌어	-10.1543
▁전설	-10.1553
▁누군가	-10.1561
배경	-10.1564
하고싶은	-10.1564
쥬	-10.1576
핀	-10.1576
▁스트레스	-10.1577
▁아류작	-10.1577
▁니콜	-10.1578
옴	-10.1579
했지	-10.1591
▁이래서	-10.1599
한다고	-10.1602
부분이	-10.1603
▁색감	-10.1606
▁아픈	-10.1618
▁생각하고	-10.162
▁모르게	-10.162
▁좋아하는데	-10.162
▁연기자들	-10.1621
뻐	-10.1634
▁뻔하	-10.1641
까요	-10.1643
▁심하게	-10.1644
▁안습	-10.1649
▁볼게	-10.165
▁그거	-10.1657
▁밋밋	-10.1658
▁씬	-10.1662
▁대화	-10.1667
켜	-10.1669
▁노래도	-10.1669
▁말하고	-10.1671
큰	-10.1674
더빙	-10.1681
▁가족영화	-10.1682
건만	-10.1684
하겠	-10.1689
▁웬	-10.1693
풋풋	-10.1704
자를	-10.1704
섹	-10.1705
냉	-10.1706
뽀	-10.1706
핑	-10.1706
▁스티븐	-10.1706
칸	-10.1706
▁이제서야	-10.1706
▁잔뜩	-10.1707
▁반복	-10.1717
▁색	-10.172
▁확실	-10.1723
▁만남	-10.1725
▁만들다니	-10.1726
▁챙겨	-10.173
▁감명	-10.173
▁그럴	-10.1745
ad	-10.1747
▁별로임	-10.1749
▁돼	-10.1753
▁비하면	-10.1754
▁에이	-10.1755
아까운	-10.1755
빠지	-10.1756
▁생각나서	-10.176
는구나	-10.1761
▁이런영화를	-10.1765
▁보지마라	-10.1767
ᄏᄏᄏᄏᄏᄏᄏᄏᄏᄏᄏᄏ	-10.1768
▁암튼	-10.1775
으로서	-10.1781
▁떨	-10.1796
▁노래가	-10.1796
▁먹고	-10.1799
빛	-10.1807
꽃	-10.181
흠	-10.181
씬이	-10.1811
▁다르다	-10.1811
▁있어야	-10.1824
▁죽이는	-10.1832
닿	-10.1833
오늘	-10.1834
W	-10.1838
▁DVD	-10.1838
낯	-10.1838
벅	-10.1838
U	-10.1838
▁안타까운	-10.1838
▁읽어	-10.1838
뜬	-10.1838
▁2014	-10.1838
▁소소한	-10.1838
명의	-10.1843
▁모험	-10.1843
▁감각	-10.1846
▁동안	-10.1847
점대는	-10.1849
년작	-10.1851
▁무술	-10.1856
▁빼면	-10.1862
▁선동	-10.1864
▁관객들	-10.1864
▁낮지	-10.187
▁괜찮음	-10.1876
▁남네요	-10.1878
▁엉성하고	-10.188
▁어쩔수	-10.1885
▁깎	-10.1885
설정	-10.1886
▁귀여워	-10.1886
▁출연한	-10.1897
그만	-10.1904
▁하면서	-10.1905
▁살고	-10.1907
▁모를	-10.1908
▁매력적	-10.192
같고	-10.1924
▁관객을	-10.1926
만드네	-10.1933
▁수도	-10.1936
▁많고	-10.1941
▁최근에	-10.1957
관람	-10.1959
좋았다	-10.1962
껴	-10.1969
칭	-10.1971
▁봤을까	-10.1971
▁아이디어	-10.1971
▁스스로	-10.1972
▁소중한	-10.1972
▁잔혹	-10.1973
▁잤다	-10.1975
▁11	-10.1976
▁재밋어요	-10.1977
안됨	-10.1987
▁열연	-10.1988
▁오래된	-10.1989
▁방영	-10.1992
얘	-10.1998
되나	-10.1998
▁조절	-10.1999
▁않을까	-10.2006
▁보여줬	-10.2007
▁남편	-10.2014
▁선생님	-10.2019
▁정도의	-10.2025
▁볼만했	-10.2028
-_-;	-10.2028
▁실제로	-10.2032
▁돌리	-10.2035
▁본다면	-10.2041
▁코미디영화	-10.2042
이뻐	-10.2044
▁우리의	-10.205
▁됨	-10.2053
▁불쌍하다	-10.2053
▁배우를	-10.2056
▁정말이지	-10.2061
보셈	-10.2065
▁스릴있	-10.2076
▁따로	-10.208
있어서	-10.2081
더라도	-10.2083
▁모든것	-10.2088
붙	-10.209
비디오	-10.209
영화입니다	-10.2091
▁낮아	-10.2093
됐다	-10.2094
▁아쉬웠	-10.2094
▁여러분	-10.2101
트리	-10.2103
▁후속작	-10.2106
▁주윤발	-10.2106
▁즐거웠	-10.2106
▁교과서	-10.2106
▁21	-10.2108
▁sf	-10.2109
받는	-10.2111
▁일어나	-10.2113
보지마셈	-10.2115
블루	-10.2122
▁체	-10.2125
▁여운을	-10.2128
▁최고의영화	-10.2135
▁주기도	-10.2137
▁씹	-10.2137
동생	-10.2137
▁분위기가	-10.2137
▁집중해서	-10.214
문화	-10.214
▁막판에	-10.2142
▁지났	-10.2144
▁개연성이	-10.2145
▁잇	-10.2145
▁일반	-10.2148
버전	-10.2148
▁앞으로도	-10.2149
긴하지만	-10.2151
▁여전	-10.2154
▁신경	-10.2155
본사람	-10.2157
▁예쁘고	-10.2163
▁한편의	-10.2165
출연	-10.2169
▁맞아	-10.2169
99	-10.217
요소	-10.2182
▁줄수	-10.2183
▁보내	-10.2192
▁식상한	-10.2192
▁썼	-10.2194
▁ᄀ	-10.2195
▁영상이	-10.2195
▁안볼	-10.2195
▁내가본	-10.2199
개그	-10.2201
거리는	-10.2205
▁됬	-10.2208
▁단편	-10.221
▁마이	-10.2211
▁재난영화	-10.2228
하군	-10.2229
▁가슴을	-10.2229
찡	-10.2232
긴장감	-10.2233
▁G	-10.2233
▁넌	-10.2237
아무	-10.2238
▁구성이	-10.2238
아까웠	-10.2241
▁수준의	-10.2243
앵	-10.2243
▁살다살다	-10.2243
싼	-10.2243
▁로버트	-10.2243
▁제임스	-10.2244
▁직접	-10.2244
▁잠깐	-10.2244
거같은데	-10.2245
졸작	-10.2245
납니다	-10.2245
▁만들었는지	-10.2253
후회	-10.2254
▁남자의	-10.2255
▁대표	-10.2258
▁뛰어나	-10.2259
스토리도	-10.2263
왓	-10.2263
▁있다니	-10.2266
30	-10.2266
▁먼가	-10.2271
▁살면서	-10.2272
말이필요없	-10.2272
▁재미도없고	-10.2274
▁^	-10.2274
브라	-10.2276
▁내면	-10.228
것같아요	-10.2289
▁많은걸	-10.229
▁좀비영화	-10.2291
때부터	-10.2305
▁ᄌ	-10.2306
보니까	-10.2307
점이상	-10.2314
스포	-10.2315
높은	-10.2319
▁망친	-10.2324
▁못보겠	-10.2326
▁본방사수	-10.2345
럼	-10.2352
▁영화보면서	-10.2353
조아	-10.2358
배우들의	-10.2367
▁남아있	-10.2373
♥♥♥♥	-10.2378
아저씨	-10.2378
략	-10.2381
되었다	-10.2381
괜	-10.2382
엑	-10.2382
▁다운받아	-10.2382
▁특수효과	-10.2382
룩	-10.2382
▁심형래	-10.2382
▁동성애	-10.2382
▁여러가지	-10.2384
▁술	-10.2386
▁만들수	-10.2386
하지마	-10.2386
▁억지스러운	-10.239
es	-10.239
▁바꾸	-10.239
이즈	-10.2391
야할	-10.2396
▁집에	-10.2396
애들이	-10.2397
▁강력	-10.2399
0%	-10.2401
▁해결	-10.2403
▁이딴걸	-10.2404
▁조작	-10.2405
▁따분	-10.2406
덕에	-10.2407
▁모두가	-10.241
조금	-10.2412
▁궁금하다	-10.2418
감정	-10.2424
같은영화	-10.2424
모두	-10.2431
하다가	-10.2451
▁죽은	-10.2459
했더니	-10.246
레스	-10.2466
ᄏᄏᄏᄏᄏᄏ	-10.2473
주연	-10.2474
생각이	-10.248
▁검	-10.2483
▁엘	-10.2485
것같은	-10.2507
▁얼마	-10.2508
▁모르겠고	-10.2508
▁끈	-10.251
▁영화보는	-10.251
▁하는거	-10.252
▁소장	-10.2521
즐	-10.2523
롯	-10.2523
^-^	-10.2523
닉	-10.2523
쪼	-10.2523
▁인내심	-10.2523
▁제이슨	-10.2523
▁내생에	-10.2524
몸	-10.2524
화이팅	-10.2525
헐	-10.2525
▁경험	-10.2526
▁볼수있는	-10.2528
관객	-10.253
웃김	-10.2531
▁로코	-10.2534
▁게다가	-10.2535
▁신선하	-10.2536
▁타임	-10.2538
▁남자들	-10.2539
▁주변	-10.2539
여주	-10.2542
▁매력을	-10.2543
▁위로	-10.2543
▁세상을	-10.2544
만하다	-10.2547
▁케이블에서	-10.2549
▁부실	-10.2552
셈	-10.2558
▁포스터가	-10.256
보이는	-10.2561
▁캐릭터가	-10.2564
▁마지막장면	-10.2568
▁내용인지	-10.2572
모든	-10.2577
▁아까운영화	-10.2578
▁풍자	-10.2579
▁지겹다	-10.258
장애	-10.2582
▁요리	-10.2584
▁보며	-10.2587
특별	-10.2591
배우들이	-10.2595
▁초딩때	-10.261
게임	-10.261
▁안맞는	-10.2618
12	-10.263
▁진수	-10.2634
▁생각하면	-10.2636
▁엔딩이	-10.2649
▁커플	-10.2649
▁예쁘다	-10.265
아빠	-10.2652
▁쥐	-10.2656
딴	-10.2664
찮	-10.2665
▁해리포터	-10.2666
랭	-10.2666
▁거짓말	-10.2666
▁나은	-10.2667
▁효과	-10.267
▁애들은	-10.2672
푸	-10.2672
▁언제봐도	-10.2673
촌	-10.2674
▁잠이	-10.2676
▁높게	-10.2677
추억	-10.2678
▁단어	-10.268
▁담배	-10.2681
개념	-10.2683
▁연출과	-10.2683
▁결정	-10.2684
▁우리는	-10.2684
웃겨	-10.2687
▁영화인지	-10.2692
▁그자체	-10.2695
굿굿굿	-10.2698
현실을	-10.2701
▁ᄍᄍᄍ	-10.2705
▁반전은	-10.2706
겼	-10.2719
받아서	-10.2722
▁작품은	-10.2723
▁그립다	-10.273
▁있었지만	-10.2733
▁싶을	-10.2733
▁어디에	-10.2742
쟁	-10.2745
다큐	-10.2745
문제	-10.2746
믿	-10.2758
▁형편없	-10.276
▁부터	-10.276
▁뭘까	-10.2761
▁만든거	-10.2765
▁재밋음	-10.2767
▁않네요	-10.2769
바닥	-10.2778
햇다	-10.2779
하진	-10.2779
거같아요	-10.278
▁뭐니	-10.2784
▁포스	-10.2788
나오고	-10.2788
보소	-10.2792
▁봤어	-10.2793
재미있게	-10.2795
이름	-10.2795
상실	-10.2796
▁푸	-10.2802
▁개연성도	-10.2805
갔는데	-10.2805
분은	-10.2807
상태	-10.2808
액	-10.281
▁dvd	-10.2811
▁블록버스터	-10.2811
곰	-10.2811
▁디테일	-10.2811
▁태어나서	-10.2811
뎅	-10.2811
▁스크린	-10.2811
▁말도안되는	-10.2813
▁어쩜	-10.2816
▁줬	-10.2816
▁할머니	-10.2817
▁응	-10.2818
것만으로도	-10.2822
▁영혼	-10.2826
▁반담	-10.2827
▁알겠는데	-10.2828
포스터	-10.283
싸움	-10.283
▁라이	-10.2831
▁나에겐	-10.2833
▁안본	-10.2833
▁사진	-10.2835
좋은영화	-10.2836
▁옥	-10.2839
장르	-10.284
▁모르겠음	-10.2841
▁동심	-10.2842
후에	-10.2842
초반	-10.2843
▁기억나는	-10.2845
▁아쉽지만	-10.2849
▁해라	-10.2859
▁보여주고	-10.2867
번은	-10.2868
놈이	-10.2873
치고는	-10.2882
▁약간의	-10.2884
▁제외	-10.2895
▁남은	-10.2895
여행	-10.2902
▁액션씬	-10.2903
▁대부분	-10.2904
보시길	-10.2905
▁군	-10.2906
▁이런영화는	-10.291
▁이상하게	-10.2912
▁이런건	-10.2915
어이없	-10.2926
있습니다	-10.2931
임에도	-10.2938
▁오락영화	-10.294
지않아	-10.2942
▁만한	-10.2943
없었	-10.2946
▁오빠	-10.295
평가	-10.2952
▁대중	-10.2954
몇	-10.2954
▁다시는	-10.2954
기전에	-10.2954
▁실력	-10.2957
닷	-10.2958
ᄁ	-10.2958
▁you	-10.2958
▁가벼운	-10.2958
▁숨겨진	-10.2958
▁짜임새	-10.2958
▁제니퍼	-10.2958
▁탄생	-10.2959
▁이뻐서	-10.2959
▁어설프고	-10.2959
▁1,2	-10.296
▁엿	-10.2961
▁데리고	-10.2965
끄러	-10.2967
▁인상적	-10.2969
▁또다른	-10.2971
▁봐야하는	-10.2971
▁나름대로	-10.2972
▁깨닫게	-10.2974
으니까	-10.2976
▁과장	-10.2978
논	-10.2978
걍	-10.298
였으면	-10.2981
▁봐도봐도	-10.2982
커플	-10.2983
▁하나의	-10.2984
여운이	-10.2985
▁낙	-10.2991
▁선물	-10.2997
▁대해서	-10.2998
▁톰	-10.3004
▁최고로	-10.301
▁원작에	-10.3017
▁매미	-10.302
▁비판	-10.302
▁재미로	-10.3022
▁잼있음	-10.3028
ᅮᅲ	-10.3031
려다가	-10.3036
모르겟	-10.3038
▁조선	-10.3038
▁잘만들	-10.3049
▁제목만	-10.3052
우스	-10.3062
▁하아	-10.3073
▁아름답	-10.3074
▁똑같은	-10.3077
맘	-10.3081
▁평론가들	-10.309
지말자	-10.309
▁재밌지	-10.3092
연기는	-10.3093
▁기자	-10.3098
▁자주	-10.3103
묵	-10.3107
▁됩니다	-10.3107
▁장국영	-10.3107
▁Good	-10.3107
▁러시아	-10.3108
▁울컥	-10.3108
▁열받	-10.3109
▁재개봉	-10.3112
▁결코	-10.3112
▁잘만들었	-10.3115
▁남자주인공	-10.3115
▁놀라운	-10.3116
▁적당히	-10.3116
▁한숨	-10.3118
같아서	-10.312
▁비밀	-10.3123
려나	-10.3123
본영화중	-10.3126
부러	-10.3127
▁욕망	-10.3131
▁따뜻하고	-10.3133
앤	-10.3135
▁개노잼	-10.3136
▁찾아보	-10.3136
ut	-10.3138
▁죽이고	-10.3142
라곤	-10.3143
쳐서	-10.3143
▁새벽에	-10.3149
▁없습니다	-10.3156
▁시간아깝다	-10.3157
▁놀랍다	-10.316
▁감동은	-10.316
▁형사	-10.3161
적이지	-10.3162
류영화	-10.3164
받은	-10.3164
▁클레멘타인	-10.3164
▁몇년	-10.3165
▁불러	-10.3167
▁궁	-10.3168
큐	-10.3169
떨	-10.3174
~~!!	-10.3177
▁유치해	-10.3179
▁이야기는	-10.3186
▁있던	-10.3189
거같음	-10.319
▁쩔어	-10.3191
▁수작이다	-10.3191
사람들은	-10.3194
▁재미없어서	-10.3194
▁아이들과	-10.3202
▁난해하	-10.3207
▁느꼈다	-10.3213
▁거장	-10.3216
재밌는	-10.3221
하길	-10.3225
▁진부하	-10.3226
기도하고	-10.3227
▁시리즈는	-10.323
빠져	-10.3231
검	-10.3231
른다	-10.3235
▁아깝고	-10.3242
엇는데	-10.3245
▁본게	-10.3248
콘	-10.3249
받아	-10.3252
▁있네	-10.3253
^^*	-10.3254
딘	-10.3259
▁오랫만에	-10.3259
▁왤케	-10.3259
싹	-10.3259
▁배트맨	-10.3259
J	-10.3259
▁내생애	-10.3259
▁끔찍	-10.3259
▁유일한	-10.326
▁여자친구	-10.3267
▁어렵다	-10.327
▁흔들	-10.327
▁명작을	-10.3273
어린	-10.3274
구석	-10.3275
▁최고봉	-10.3276
▁연극	-10.3279
▁영상과	-10.3279
▁울리는	-10.3284
삶	-10.3288
뇌	-10.3291
▁길게	-10.3292
L	-10.3293
주기	-10.3293
▁입장	-10.3294
▁벤	-10.3296
할수가	-10.3296
▁속에서	-10.3323
▁녹	-10.3328
▁뭐하나	-10.334
▁한국에서	-10.3347
열자	-10.335
▁편견	-10.3354
▁새로	-10.3355
무시	-10.3363
쳤다	-10.3363
었지	-10.3366
19	-10.3369
▁의미가	-10.3375
▁두고	-10.3399
as	-10.3399
▁삼류영화	-10.3404
객	-10.3405
▁싸움	-10.3406
쩜	-10.3407
al	-10.3411
▁다시보니	-10.3412
▁조니뎁	-10.3413
램	-10.3413
벼	-10.3413
층	-10.3413
▁강렬한	-10.3413
▁사운드	-10.3413
▁다양한	-10.3413
사람들이	-10.3414
갠적으로	-10.3415
할만한	-10.3415
▁돋보이는	-10.3416
▁시청률이	-10.3417
타임	-10.3419
▁믿고보는	-10.3421
▁어색하	-10.343
▁당연	-10.3431
▁꼬마	-10.3432
▁하나같이	-10.3434
▁=	-10.3435
자리	-10.3437
글자	-10.3441
때문	-10.3442
보는게	-10.3447
▁좋네	-10.3448
▁잡아	-10.3451
▁막장드라마	-10.3455
어떻게	-10.3456
솔직히	-10.3456
▁모든걸	-10.3458
▁않아서	-10.3461
▁나랑	-10.3462
쩐다	-10.3468
▁사랑해요	-10.3468
▁정의	-10.3468
▁범	-10.3471
▁좋겠	-10.3477
재미있어요	-10.348
▁기준	-10.3484
▁싶어요	-10.3489
줘도	-10.3491
▁주연배우	-10.3495
말아먹	-10.3496
▁느껴졌	-10.3496
멜로	-10.3506
▁넘게	-10.3506
없네요	-10.3509
▁재미있을	-10.3512
▁잘하고	-10.3513
▁기회	-10.3514
▁자랑	-10.3518
스럽게	-10.3519
구리	-10.3521
▁만들기	-10.3522
▁헬	-10.3527
점부터	-10.3527
▁짧은	-10.353
씀	-10.3531
▁샘	-10.3531
▁안봐도	-10.3534
건가요	-10.3535
었을	-10.3535
▁이상해	-10.3535
웨이	-10.3544
쓰는	-10.3555
▁맞지	-10.3556
▁갖고	-10.3559
낭	-10.356
▁다운	-10.3563
렵	-10.3563
▁분들은	-10.3566
닫	-10.3568
랙	-10.3569
닼	-10.3569
▁빵빵	-10.3569
▁뭥미	-10.3569
▁기대했	-10.3569
▁집착	-10.3571
▁사랑해	-10.3573
분만에	-10.3574
▁웃으면서	-10.3575
▁허술한	-10.3577
굳굳	-10.3585
▁배역	-10.3588
일듯	-10.3592
져요	-10.3593
▁변화	-10.3596
▁영화인가	-10.3596
기억이	-10.3597
▁시간만	-10.3601
지마세요	-10.3603
제로	-10.3603
▁소설을	-10.3603
▁둘이	-10.3608
재미도	-10.3609
겨운	-10.3612
▁본인	-10.3613
느껴	-10.3614
▁보다는	-10.3616
▁난잡	-10.3617
로드	-10.3617
잊	-10.3618
벗	-10.3619
▁없었음	-10.362
▁교훈을	-10.3624
▁다루	-10.3624
▁잔잔하면서	-10.3627
▁참신하	-10.3633
▁없냐	-10.3636
언제	-10.3646
▁즐	-10.3647
▁살린	-10.3649
▁재밌어서	-10.3656
▁볼만했다	-10.3664
,,,,,,	-10.3672
당한	-10.3676
할뿐	-10.3688
▁L	-10.3692
▁귀엽다	-10.3695
▁볼때	-10.3696
▁하길래	-10.3702
야겠다	-10.3704
스럽지	-10.3712
▁멋졌	-10.3719
▁몽	-10.3723
갱	-10.3728
▁뱀파이어	-10.3728
▁임팩트	-10.3728
▁줍니다	-10.3728
찐	-10.3728
▁명복을	-10.3728
▁싸우는	-10.3729
▁조잡	-10.3731
▁처절	-10.3733
이랄까	-10.3735
▁어째	-10.3737
▁여자주인공	-10.3739
▁하늘	-10.3741
었나	-10.3742
혹은	-10.3743
▁있었는데	-10.3746
▁좋겠네요	-10.3746
학년	-10.3749
▁내용과	-10.3751
살인	-10.3751
100	-10.3754
인물	-10.376
▁불편한	-10.3764
▁보다니	-10.3765
▁책을	-10.3768
옆	-10.3771
▁명장면	-10.3775
▁없나요	-10.3775
▁별로고	-10.3776
▁점수는	-10.3778
▁흑인	-10.3779
▁폐	-10.3781
될듯	-10.3781
▁폐지	-10.3785
썼	-10.3785
도대체	-10.3788
▁호구	-10.3788
▁한국판	-10.3788
낚	-10.3801
차원	-10.3802
~~^^	-10.3815
▁대단하	-10.3816
보인다	-10.3816
소름	-10.382
공주	-10.3824
드만	-10.3838
▁듣고	-10.3842
스토	-10.3852
해야할	-10.3853
▁반전을	-10.3864
발연기	-10.3867
▁짜증만	-10.3867
역사	-10.3883
웟	-10.3889
▁아닙니다	-10.3889
▁할리우드	-10.3889
퓨	-10.3889
▁홍상수	-10.3889
▁유일하게	-10.3889
▁감정이입	-10.389
▁꽤나	-10.3893
▁60	-10.3893
▁첫사랑	-10.3896
▁저평가	-10.3896
▁두번째	-10.39
뿐이다	-10.3901
였나	-10.3901
▁쉽지	-10.3904
▁생긴	-10.3907
▁본듯	-10.3916
▁하지원	-10.3918
▁몰랐다	-10.392
▁부모님	-10.392
▁흑	-10.3922
굳	-10.3925
어색	-10.3926
▁가정	-10.3926
▁감독을	-10.3927
▁자체는	-10.3929
th	-10.3929
▁바다	-10.3933
▁답답하고	-10.3941
▁넘치	-10.3945
▁짜증이	-10.3946
▁믿기지	-10.3947
존나	-10.3951
▁안간다	-10.3958
▁멋지고	-10.3968
▁잔잔하	-10.3971
상황	-10.3978
짱짱	-10.398
했을때	-10.3981
▁하나로	-10.3982
었을까	-10.3986
▁발상	-10.399
싶다	-10.3994
▁돈을	-10.3996
▁재미있는데	-10.3998
▁마음으로	-10.4006
▁받는	-10.4008
▁추리	-10.4015
바라	-10.4022
▁포스터만	-10.4022
▁영화라니	-10.4023
▁배우들은	-10.4024
않음	-10.4028
▁순수함	-10.4032
▁주제를	-10.4034
▁스릴도	-10.404
▁생기	-10.4049
▁힘내	-10.405
뭣	-10.4053
밴	-10.4053
앨	-10.4053
ᄡ	-10.4053
▁명불허전	-10.4053
맴	-10.4053
부끄럽	-10.4053
욤	-10.4053
짤	-10.4053
덩어리	-10.4053
▁아놀드	-10.4053
▁of	-10.4053
▁영환데	-10.4054
▁ᄒᄒᄒᄒ	-10.4063
▁디워	-10.4066
거든	-10.407
▁아냐	-10.4071
들끼리	-10.4072
▁성격	-10.4075
▁대놓고	-10.4075
▁살아가는	-10.4079
후반	-10.408
▁애매	-10.4082
▁보라	-10.4091
40	-10.4092
두고	-10.4092
▁강한	-10.4093
이딴	-10.4094
▁아깝네	-10.4098
번을	-10.4103
었는지	-10.4105
▁반대	-10.4107
할것	-10.4117
아까워	-10.4119
▁F	-10.4119
▁않나	-10.4123
▁매일	-10.4127
낮은	-10.4127
▁이용	-10.4128
▁소재도	-10.4128
귀엽	-10.4129
불쌍	-10.4131
▁거리	-10.4146
▁맛이	-10.4148
▁관점	-10.4157
▁많은데	-10.4162
극장에서	-10.4164
▁낮게	-10.4167
▁음식	-10.4168
▁재미없을	-10.4168
▁무섭지	-10.417
▁그만큼	-10.4171
▁포스터에	-10.4178
▁어른이	-10.418
▁적절	-10.4187
▁아쉬움이	-10.4187
▁어울리는	-10.4189
▁보는거	-10.4191
▁세번	-10.4191
▁보기에는	-10.4194
있지	-10.4204
꼈	-10.4218
삭	-10.4219
얄	-10.4219
▁빕니다	-10.4219
▁우뢰매	-10.4219
▁짐캐리	-10.4219
▁컴퓨터	-10.4219
깃	-10.4219
땀	-10.4219
럭	-10.4219
켄	-10.4219
탱	-10.4219
▁깡패	-10.4219
▁이소룡	-10.4219
▁희대의	-10.4219
▁플롯	-10.422
▁하정우	-10.422
▁뭐하자는	-10.4221
▁귀여움	-10.4221
▁바랍니다	-10.4222
▁흐르는	-10.4222
▁장난하냐	-10.4224
▁끼워	-10.4227
▁다운받	-10.4228
▁근래	-10.4231
아아아	-10.4231
너무너무	-10.4233
줄알았는데	-10.4235
▁첨엔	-10.4236
▁괜찮았는데	-10.4238
▁중독	-10.4239
만족	-10.4244
▁무료	-10.4246
▁인해	-10.4246
▁생각으로	-10.4248
▁영화예요	-10.4251
▁머리가	-10.4261
봐야지	-10.4261
▁있으	-10.4262
이런류의	-10.4263
▁봉	-10.427
멋있	-10.4273
숨	-10.4286
볼수	-10.4287
90	-10.4296
▁연인	-10.4298
▁감동받	-10.4303
춤	-10.4303
분위기	-10.4305
코믹	-10.4306
▁그지같	-10.431
든지	-10.4311
느끼	-10.4311
▁소년	-10.4312
▁충분	-10.4313
▁받은	-10.4319
▁보던	-10.4329
▁엉망이	-10.4338
▁:)	-10.4346
거죠	-10.4348
▁봅니다	-10.4355
▁그럴듯	-10.436
재미없어	-10.4361
▁무섭고	-10.4367
▁나네요	-10.437
보여주	-10.4378
게만드는	-10.4379
▁실화를	-10.4379
▁괜찮았다	-10.4382
사건	-10.4385
납	-10.4386
쿵	-10.4389
▁터미네이터	-10.4389
젖	-10.4389
컴	-10.4389
▁제시카	-10.4389
▁명대사	-10.4392
▁즐겨	-10.4393
▁배경음악	-10.4393
미친	-10.4394
▁은근히	-10.4394
▁돈내고	-10.4396
해주고	-10.4398
▁그야말로	-10.44
▁거품	-10.4404
▁손에	-10.4406
▁주인공은	-10.4407
▁짜증남	-10.4408
이었습니다	-10.4411
▁불쌍한	-10.4414
▁인형	-10.4414
▁결말을	-10.442
▁어거지	-10.442
▁한개도	-10.4421
▁보고싶어	-10.4424
▁정신병자	-10.4426
▁작가님	-10.4435
보긴	-10.4435
있었다	-10.4439
라는걸	-10.4439
▁꿀	-10.4444
▁짜증나서	-10.4449
▁때려	-10.4452
▁세상이	-10.4455
▁감동적이네요	-10.4455
ch	-10.4461
볼수있	-10.4465
▁생에	-10.4466
▁섬	-10.4467
섬	-10.448
▁대본	-10.4481
엄청	-10.4486
▁수입	-10.4486
▁떨어지고	-10.4486
▁사상	-10.4489
▁없으면	-10.4494
▁저급	-10.4502
▁여주인공이	-10.4504
▁아니지	-10.4507
▁느껴지	-10.4515
봣다	-10.4521
좋아하	-10.4522
깝	-10.4523
▁여주가	-10.4527
▁쩌는	-10.4527
보고있어요	-10.4527
므	-10.4529
▁위해서	-10.4535
▁알겠다	-10.4536
나왓	-10.4537
ᄍ	-10.4543
▁아내	-10.4547
에대해	-10.4548
▁정신없	-10.455
▁그건	-10.455
아닌가	-10.4551
▁알았네	-10.4552
▁ᄃᄃᄃ	-10.456
읍	-10.4561
ᅢ	-10.4561
▁고등학교	-10.4561
▁대통령	-10.4561
▁박중훈	-10.4561
▁쓸데없이	-10.4561
▁아무생각없이	-10.4561
▁익숙	-10.4562
▁정우성	-10.4562
▁폭풍	-10.4563
▁평균	-10.4565
▁모른다	-10.4566
▁루즈	-10.4568
▁좋앗	-10.4569
▁당연히	-10.4569
▁사라지	-10.457
▁아닐	-10.4571
▁싶었다	-10.4571
앞에서	-10.4572
▁자아	-10.4573
▁부럽	-10.4576
▁볼만합니다	-10.4578
최고다	-10.4579
분동안	-10.458
▁하품	-10.4584
▁이름이	-10.4585
작이라	-10.4585
▁부분도	-10.4585
▁주제가	-10.4586
▁혹시나	-10.459
▁도망	-10.4595
▁독일	-10.4598
▁말자	-10.4598
▁아름답게	-10.4599
▁현실과	-10.4603
▁원조	-10.4608
▁우연	-10.4609
없구	-10.461
먹은	-10.4613
장면은	-10.4621
▁손발	-10.4622
▁아프다	-10.4622
▁별하나	-10.4638
있으면	-10.464
▁한국영화의	-10.4645
▁아래	-10.4646
시아	-10.4657
궁	-10.466
▁부부	-10.4661
탑	-10.4663
하겠다	-10.4665
보고싶어요	-10.4666
아직도	-10.4666
▁목적	-10.4666
재미있다	-10.4674
노답	-10.4675
▁정도면	-10.4677
▁공감할	-10.4712
▁배경이	-10.4714
뭐냐	-10.4716
겠죠	-10.472
▁아예	-10.4721
▁보게된	-10.4726
싫어	-10.473
▁즐겁	-10.4731
▁예수	-10.4735
ᅩ	-10.4735
뚝	-10.4737
뢰	-10.4737
둡	-10.4737
똘	-10.4737
뻥	-10.4737
▁빨갱이	-10.4737
▁움직이	-10.4737
▁이토록	-10.4737
▁짜집기	-10.4737
▁스포츠	-10.4737
▁반드시	-10.4737
▁이해불가	-10.4737
보느니	-10.4737
▁착각	-10.4739
▁배꼽	-10.4739
▁하다가	-10.4741
▁이것보단	-10.4741
▁응원	-10.4742
▁여러번	-10.4743
현실적	-10.4744
▁어디가	-10.4745
▁에효	-10.4749
부분은	-10.475
▁추격	-10.475
▁내용전개	-10.4754
왔어요	-10.4756
질질끌	-10.476
찾아	-10.4762
▁재미있었음	-10.4766
▁재밌었던	-10.4774
좋네요	-10.478
▁높아서	-10.4781
미국	-10.4783
▁이해할수	-10.4784
재밋엇	-10.4785
80	-10.4785
하하하하	-10.4785
내용은	-10.479
▁이상하고	-10.479
▁본건데	-10.4793
▁키스	-10.4793
▁하하	-10.4793
둥이	-10.4794
▁몰라	-10.4796
▁유발	-10.4804
▁영상미가	-10.4807
▁봐야지	-10.4811
▁심각하	-10.4812
▁아프	-10.4816
▁못보겠다	-10.4817
당시	-10.4821
▁어처구니	-10.4828
돌이	-10.4828
▁가능한	-10.4831
▁쓰는	-10.4835
멍	-10.4844
왠	-10.4848
▁만들어주	-10.4849
▁삶이	-10.485
나름	-10.4852
외로	-10.4856
▁답이	-10.4864
모자	-10.4865
▁그립	-10.4866
▁허무한	-10.4866
▁장난아니	-10.4868
▁자리	-10.4869
▁작품입니다	-10.4871
델	-10.4877
혼자	-10.4879
스톤	-10.4881
행복	-10.4881
▁멋있는	-10.4882
듯하다	-10.4899
▁박수	-10.4902
윈	-10.4903
없나	-10.4909
▁당신은	-10.4909
뷰	-10.4913
쫓	-10.4915
▁설득력	-10.4915
곱	-10.4915
▁나레이션	-10.4915
쟈	-10.4915
▁드디어	-10.4915
▁양아치	-10.4915
▁박진감	-10.4915
▁블랙코미디	-10.4917
▁맞춰	-10.4918
▁만화책	-10.4922
답니다	-10.4923
▁만들었을까	-10.4926
▁ᄒᄃᄃ	-10.4926
▁자신이	-10.4927
▁아만다	-10.4933
▁부담	-10.4938
500	-10.4939
▁안보는게	-10.4947
▁울면서	-10.4949
톤	-10.495
▁잔잔하게	-10.4951
▁시작부터	-10.4952
햇는데	-10.4959
올라	-10.4961
꺼야	-10.4962
▁생각했는데	-10.4963
▁따뜻해	-10.4964
씁쓸	-10.497
▁영원한	-10.4972
▁재난	-10.4975
▁않았지만	-10.4979
시원	-10.4981
▁좋을듯	-10.4982
흑	-10.4992
하시길	-10.5
▁답답해	-10.5011
▁가수	-10.5011
▁등장인물	-10.5015
광구	-10.5019
~~~~~~	-10.5032
▁거기에	-10.5033
꿀	-10.5033
아버지	-10.5036
목소리	-10.5045
▁자신을	-10.5046
마냥	-10.5047
▁명배우	-10.5048
▁황당한	-10.5049
같아요	-10.5061
아이들	-10.508
▁매력에	-10.5082
▁눈물나	-10.5089
뻔했다	-10.5092
지루하다	-10.5094
하는건지	-10.5094
▁케릭터	-10.5097
랴	-10.5097
및	-10.5097
▁유덕화	-10.5097
▁우려먹	-10.5097
▁떨어짐	-10.5097
▁도무지	-10.5098
▁아진짜	-10.5101
있어요	-10.5102
▁빠른	-10.5102
▁장애인	-10.5102
▁아무런	-10.5103
▁철학적	-10.5105
▁폭발	-10.5106
▁향수	-10.5106
▁흘리	-10.5106
▁봤다면	-10.5113
귀신	-10.5113
▁100%	-10.5118
▁소중함을	-10.5119
▁to	-10.5131
소녀	-10.5134
▁생각난다	-10.5137
▁욕심	-10.514
버스	-10.5147
▁진한	-10.5149
▁다신	-10.5154
보기싫	-10.5155
▁생각할	-10.5155
간만에	-10.5156
▁아깝네요	-10.5159
▁여자애	-10.5163
▁책으로	-10.5166
▁끝날때	-10.5169
빼	-10.5169
▁최악의영화	-10.517
▁난리	-10.5172
▁아우	-10.5179
▁배신	-10.5185
▁소화	-10.5192
▁밤에	-10.5192
▁뭐여	-10.5193
놨네	-10.5196
▁빠르	-10.5197
받을	-10.5223
▁목소리가	-10.5223
▁적당한	-10.5226
알아	-10.5229
▁보려	-10.523
캐스팅	-10.5231
▁갖다	-10.5259
▁감정이	-10.5262
▁역사를	-10.527
▁비슷하	-10.527
랍	-10.5279
표정	-10.528
밧	-10.5282
▁웰메이드	-10.5282
띠	-10.5282
▁앞뒤	-10.5285
▁축구	-10.5287
▁감동적이에요	-10.5289
▁만들어낸	-10.5297
▁재미있었습니다	-10.5297
▁어우	-10.5298
▁억지감동	-10.5298
못하는	-10.53
▁꼭보세요	-10.5301
▁동양	-10.5301
아까운영화	-10.5307
갈때	-10.5314
▁친구가	-10.5316
▁스토리전개	-10.5321
▁기대하지	-10.5321
지루하고	-10.5322
▁예술영화	-10.5339
▁얼굴이	-10.5339
▁사랑스럽다	-10.5342
빠진	-10.5344
▁기대이하	-10.5344
▁확인	-10.5346
▁기대없이	-10.5346
▁사랑합니다	-10.5351
도좋고	-10.5353
▁보이지	-10.5356
였지	-10.5358
▁말하고자	-10.536
▁왜곡	-10.5362
▁화나	-10.5365
맞는	-10.5368
▁이딴영화	-10.5371
▁전편보다	-10.5374
▁정작	-10.5379
▁안될	-10.538
▁잼있네요	-10.5381
지루해	-10.5384
것보다	-10.5386
▁명연기	-10.5389
▁아담	-10.5392
▁다시보고	-10.5394
만큼이나	-10.5397
못하겠	-10.5405
▁추천하고	-10.5405
외엔	-10.5407
▁미국식	-10.5409
▁지겹	-10.5414
▁내일	-10.5415
뻔함	-10.5416
ce	-10.5424
벤	-10.5424
▁재미없었	-10.5424
TV	-10.5428
▁후에	-10.5431
▁액션과	-10.5435
▁혹시	-10.5442
▁찾아볼	-10.5451
주기도	-10.5451
▁가고	-10.5465
▁초등학교	-10.5465
젊	-10.5468
측	-10.5468
윌	-10.5471
▁살렸다	-10.5471
▁스타워즈	-10.5471
▁브루스	-10.5471
▁공짜로	-10.5471
▁듭니다	-10.5471
▁오글오글	-10.5472
▁향연	-10.5472
▁어설프다	-10.5473
펙트	-10.5473
▁왠만한	-10.5473
▁풋풋한	-10.5475
▁실험	-10.5475
▁즐길	-10.5476
▁로빈	-10.5478
▁깨알	-10.5478
유쾌하게	-10.5479
▁2000	-10.5479
▁따름	-10.5479
▁판단	-10.5481
▁상영관	-10.5482
▁어느정도	-10.5485
것같은데	-10.5486
▁마지막까지	-10.5486
조연	-10.5488
▁이해를	-10.549
▁슬픈영화	-10.5492
▁무겁	-10.5493
맘에	-10.5495
▁보았는데	-10.5496
▁마니	-10.5496
▁미안하다	-10.5497
▁귀여워요	-10.5497
곳에	-10.5501
▁친구랑	-10.5504
▁재미있었는데	-10.5505
▁작품이라	-10.551
▁절정	-10.5514
점만점에	-10.5515
am	-10.5517
되요	-10.5518
티가	-10.5518
▁평화	-10.5519
▁소름끼치는	-10.5523
▁알았음	-10.5523
▁어이없다	-10.5523
▁그렇지만	-10.5527
▁유치해서	-10.5531
▁국가	-10.5533
▁내돈	-10.5538
▁말밖에	-10.554
▁아니었다	-10.554
했다면	-10.5545
▁중심	-10.5552
편까지	-10.5554
스릴	-10.5555
~~~~~	-10.5555
▁보겠다	-10.5556
뭐지	-10.5556
▁운명	-10.5558
▁타란티노	-10.5561
놈들은	-10.5564
▁없게	-10.5567
▁끝나서	-10.5568
▁곧	-10.5578
▁깔끔한	-10.5582
ll	-10.559
▁놀랍	-10.5597
겐	-10.56
▁어색하고	-10.5605
▁어디로	-10.5608
▁만들었나	-10.5611
▁사랑한다	-10.5614
▁파리	-10.5615
▁기적	-10.5617
늙	-10.5621
▁빛을	-10.5625
핵	-10.5625
나왔으면	-10.5626
▁시도는	-10.5627
선택	-10.5636
바람	-10.5638
▁희망을	-10.5641
신분	-10.5646
▁장난치	-10.5654
잖아요	-10.5654
픽	-10.5659
▁일본인	-10.5662
젼	-10.5663
덩	-10.5663
▁movie	-10.5663
닭	-10.5663
▁네티즌	-10.5663
셋	-10.5663
스파이더맨	-10.5663
▁한효주	-10.5664
▁첩보	-10.5664
▁스타뎀	-10.5664
▁무엇인가	-10.5664
▁엽기	-10.5664
▁역겨운	-10.5665
▁흑백	-10.5665
▁낭만	-10.5665
▁4.44	-10.5667
▁좋았을텐데	-10.5667
▁돈아까워	-10.5669
▁적어도	-10.567
▁파괴	-10.5674
▁마시길	-10.5674
▁찾을	-10.5674
▁개콘	-10.5675
▁요새	-10.5676
▁서울	-10.5677
▁개똥	-10.568
▁실망스럽	-10.5681
▁재밌게봤어요	-10.5682
▁짜증나고	-10.5682
▁잘못된	-10.5683
▁대학	-10.5683
▁장난하나	-10.5684
▁마약	-10.5686
▁보시면	-10.5686
▁사람이라면	-10.5689
▁다행이다	-10.569
▁울었어요	-10.5691
▁표현할	-10.5693
▁괜찮았음	-10.5693
▁만들어서	-10.57
▁수많은	-10.57
▁있었으면	-10.5701
잼씀	-10.5701
▁순수하고	-10.5702
▁보았던	-10.5704
▁인간은	-10.5708
▁많아서	-10.5709
순위	-10.5725
▁첨이다	-10.5725
광고	-10.5727
▁넘넘	-10.5728
▁뭐임	-10.5737
▁보고나니	-10.5746
재밋다	-10.5749
등록	-10.5752
터짐	-10.5756
것처럼	-10.5763
곳에서	-10.5765
▁실수	-10.5766
선수	-10.5767
▁고어	-10.5767
▁잘만들었다	-10.577
셔야	-10.5776
▁않은데	-10.5777
▁화끈	-10.5785
▁괜찮게	-10.5796
멜	-10.5798
▁김치	-10.5814
싫다	-10.5823
꼽	-10.5826
▁찍는	-10.5838
▁안본다	-10.5846
보신분들	-10.5847
못한	-10.5849
보내	-10.5853
부분에서	-10.5858
멈	-10.5859
쯔	-10.5859
팍	-10.5859
퀄	-10.5859
▁류승범	-10.5859
▁점수준것들	-10.5859
걷	-10.5859
렐	-10.5859
버렸네	-10.5859
븐	-10.5859
인상깊었	-10.5859
▁화장실	-10.5859
▁가까운	-10.5859
▁괜찬	-10.5859
쯧쯧	-10.5859
▁사투리	-10.586
▁하이틴	-10.586
▁누군지	-10.586
▁심지어	-10.5861
▁오래전에	-10.5864
▁할아버지	-10.5865
▁일부러	-10.5866
전혀	-10.5868
▁낫겠다	-10.5868
▁귀여	-10.587
ᄀᄀ	-10.5876
시간동안	-10.5877
자마자	-10.5879
▁심한	-10.5883
▁아파	-10.5885
것같네요	-10.5886
▁처음에는	-10.5888
▁마지막엔	-10.5889
▁멋져	-10.589
으려고	-10.589
▁기존	-10.5892
▁웃었다	-10.5896
▁담긴	-10.5897
▁나을듯	-10.59
▁실감	-10.5906
▁괜찮고	-10.5914
하나하나가	-10.5916
긴했지만	-10.5937
▁의지	-10.594
▁않으	-10.5943
답게	-10.5947
또보고싶	-10.5955
천원	-10.5969
▁두시간	-10.597
멋잇	-10.598
▁편안	-10.5985
▁망할	-10.5987
▁열라	-10.5993
상영	-10.5993
▁씁쓸하	-10.5996
▁가득한	-10.5997
▁만난	-10.5998
15	-10.5999
▁인상적인	-10.6015
엇음	-10.6019
▁재미없네요	-10.6022
꿈	-10.6035
▁찍고	-10.6037
시나리오	-10.6039
비슷	-10.604
픔	-10.6041
50	-10.6043
▁괜찮아	-10.6051
엽	-10.6056
갠	-10.6056
ve	-10.6057
▁늑대	-10.6059
▁감명깊게	-10.6059
눌	-10.6059
츄	-10.6059
툭	-10.6059
▁신하균	-10.6059
껀	-10.6059
넬	-10.6059
뱀	-10.6059
쇄	-10.6059
헉	-10.6059
▁전반적으로	-10.6059
▁도데체	-10.6059
▁박보영	-10.6059
▁불가능	-10.606
▁혐오	-10.606
▁흥미로웠	-10.606
▁환경	-10.6061
▁민폐	-10.6061
▁죄송	-10.6061
▁짜릿	-10.6062
▁그려낸	-10.6062
▁픽사	-10.6063
누님	-10.6064
▁말그대로	-10.6065
▁그림체	-10.6068
해지고	-10.6071
▁고독	-10.6071
▁신선함	-10.6072
제대로	-10.608
▁조낸	-10.6087
▁치유	-10.6095
재밋음	-10.6096
▁맞나	-10.6096
▁액션신	-10.61
▁언제까지	-10.6106
▁현실감	-10.6108
▁유행	-10.6109
▁공간	-10.6111
있지만	-10.6111
▁사람들에게	-10.6112
해줄	-10.6113
▁위트	-10.6113
▁그동안	-10.6114
하지말고	-10.6118
▁생명	-10.6122
그러나	-10.6122
에비해	-10.6134
▁승리	-10.6142
li	-10.6144
▁잠시	-10.6151
▁모르겠네	-10.6153
▁어울리지	-10.6155
▁찾아서	-10.6168
▁자극적	-10.6173
▁프랑스영화	-10.6177
당시엔	-10.6177
▁죽었	-10.6177
▁아니잖아	-10.6181
▁소장하고	-10.6183
겠는데	-10.6183
▁놓치	-10.6192
비추	-10.6197
ed	-10.6205
줘야지	-10.6215
못하고	-10.6227
▁대신	-10.6233
▁한방	-10.6238
▁잼없다	-10.6242
갖	-10.625
폴	-10.625
그렇게	-10.6252
CG	-10.6253
소재와	-10.6254
퉁	-10.6263
렀	-10.6263
▁알파치노	-10.6263
숀	-10.6263
퉤	-10.6263
▁놀랐다	-10.6263
▁흡입력	-10.6263
쉐	-10.6263
▁못봐주겠	-10.6264
▁오프닝	-10.6264
▁언젠가	-10.6264
▁자동차	-10.6264
▁호기심	-10.6264
▁배급사	-10.6264
▁일주일	-10.6264
▁케빈	-10.6264
▁극혐	-10.6265
▁스파이	-10.6265
▁예측	-10.6266
▁생각해보게	-10.6268
un	-10.6271
▁부활	-10.6274
였네요	-10.6275
▁은근	-10.6277
▁말아야	-10.628
▁거북	-10.628
▁말하려는	-10.6282
▁여친	-10.6282
▁유럽	-10.6286
▁살인마	-10.6289
▁빠지는	-10.6289
여배우	-10.6289
▁재능	-10.629
▁모르지만	-10.6293
보임	-10.6299
▁답답하다	-10.6302
▁역겹다	-10.6304
▁녹아	-10.6312
▁탄탄하고	-10.6315
되네	-10.6315
있을까	-10.6317
줘요	-10.6318
▁적절한	-10.6318
봣어요	-10.6333
very	-10.6338
▁시작해서	-10.6341
ᄃᄃᄃ	-10.6345
하니까	-10.6346
▁다르게	-10.6348
▁코믹영화	-10.635
▁등장인물들	-10.6358
▁충분한	-10.6365
할줄	-10.6373
▁벗어	-10.6381
▁이거보다	-10.6387
였다면	-10.6396
▁돼지	-10.6404
▁별로였다	-10.6404
▁짝이	-10.6407
거에요	-10.642
▁느낌이다	-10.642
^^;	-10.6432
▁정상	-10.6441
ow	-10.6461
훌륭	-10.6464
평론가	-10.6468
녀석	-10.6469
뭉	-10.6472
랩	-10.6472
쩍	-10.6472
▁EBS	-10.6472
▁송강호	-10.6472
▁유치찬란	-10.6472
샌	-10.6472
템	-10.6472
▁아름다워	-10.6472
▁왕조현	-10.6472
오랫동안	-10.6472
▁강동원	-10.6472
▁이끌어	-10.6472
▁영원	-10.6472
▁수면제	-10.6473
▁목숨	-10.6473
▁ᄌᄂ	-10.6473
▁상큼	-10.6474
▁bad	-10.6474
▁말이필요없다	-10.6476
▁고딩	-10.6478
살때	-10.6479
▁등등	-10.6481
▁절망	-10.6482
▁감동적입니다	-10.6484
허무	-10.6486
▁로망	-10.6488
▁여태	-10.6491
▁개꿀잼	-10.6492
ri	-10.6495
▁첨부터	-10.6498
보지마라	-10.6498
겼다	-10.6502
앞으로	-10.6503
▁가족애	-10.6505
돈주고	-10.6509
▁궁금해서	-10.6513
▁어이없음	-10.652
▁웃겼다	-10.653
▁잃었	-10.6534
▁마지막회	-10.6535
유발	-10.6538
▁모르겠네요	-10.654
▁좋아하지만	-10.654
▁괜찮네요	-10.6542
▁만들어라	-10.6542
▁뭐라고	-10.6557
능력	-10.6561
▁무섭게	-10.657
▁벗어나	-10.6577
사실	-10.6592
▁가족들	-10.6597
▁만화영화	-10.6597
▁좋지	-10.6598
▁의사	-10.6606
▁캐리	-10.6607
둥	-10.6616
▁마시	-10.6618
망작	-10.6624
▁볼것	-10.6624
볼까	-10.663
▁여신	-10.6633
대전	-10.6641
▁필요한가	-10.6642
▁이만한	-10.6664
법한	-10.6666
▁잘생겼	-10.6668
▁만들어졌	-10.6673
떤	-10.6679
▁미소가	-10.6679
▁나무	-10.6683
씁	-10.6684
▁2.22	-10.6685
▁둘째치고	-10.6685
▁오그라드는	-10.6685
릇	-10.6685
캡	-10.6685
▁쓸데없는	-10.6685
▁아기자기	-10.6685
몫	-10.6685
▁임창정	-10.6685
쉴	-10.6685
▁이병헌	-10.6685
▁어두운	-10.6685
▁무거운	-10.6685
▁닥치고	-10.6685
▁삭제	-10.6685
▁기발한	-10.6685
▁격투	-10.6686
▁킬러	-10.6686
▁로맨틱코미디	-10.6688
▁에라이	-10.6688
▁끌고	-10.669
쩝	-10.669
코메디	-10.6691
뭘	-10.6692
▁앉아	-10.6692
▁좋으나	-10.6693
명성에	-10.6695
ost	-10.6698
▁충분하다	-10.6699
▁떨어져	-10.6702
▁우왕	-10.6707
▁거지같은	-10.6709
▁흥분	-10.6709
▁속았다	-10.671
월드	-10.6717
▁탄탄	-10.6719
▁보고싶은데	-10.6724
▁이번에	-10.6724
점주기도	-10.6725
▁낮은지	-10.6726
였구나	-10.6727
▁역사상	-10.6728
▁연기잘하	-10.6731
▁독특하고	-10.6733
▁완벽하다	-10.6734
??????	-10.6736
▁최고에요	-10.6737
드립	-10.6742
있네요	-10.6748
▁빠져서	-10.6754
▁삶과	-10.6755
▁반영	-10.6761
▁이거보단	-10.6769
▁뛰어넘는	-10.678
만드나	-10.6789
▁대사들	-10.6793
아니면	-10.6797
해줘서	-10.6798
▁짜증나게	-10.6813
▁상대	-10.6814
되길	-10.6815
났음	-10.6815
좀비	-10.6843
▁달려	-10.6852
▁상어	-10.6857
▁김정	-10.6873
▁대박이다	-10.6881
▁도시	-10.6884
겠어	-10.6894
앉	-10.6894
빗	-10.6902
곽	-10.6902
덴	-10.6902
▁시간때우기	-10.6902
옳	-10.6902
▁미스캐스팅	-10.6902
뜸	-10.6902
룰	-10.6902
▁평점조절	-10.6902
▁김혜수	-10.6902
점준것중	-10.6902
어울림	-10.6902
▁is	-10.6903
마누라	-10.6903
▁상관없	-10.6903
▁혁명	-10.6904
▁위험	-10.6907
흑흑	-10.6907
▁빛나는	-10.6907
▁부탁	-10.6909
▁진지한	-10.691
▁극복	-10.6911
▁재앙	-10.6912
▁중학생	-10.6915
▁태국	-10.6917
▁귀여웠	-10.6921
▁한심하다	-10.6925
▁괜찮았던	-10.6926
므로	-10.6943
▁만들었냐	-10.6946
▁미녀	-10.6952
답다	-10.6961
▁때리	-10.6961
특집	-10.6965
편집	-10.6967
좋은데	-10.6974
▁잊고	-10.6977
▁한번더	-10.6988
지않게	-10.6991
▁배경으로	-10.7
하겠습니다	-10.7
▁처음이네	-10.7008
▁최고최고	-10.7017
▁나와야	-10.7029
신분들	-10.7034
->	-10.7034
삼류	-10.7035
▁피해	-10.7038
▁어쩌다	-10.7038
▁부정	-10.7044
▁웃겼	-10.7049
▁이상하다	-10.7059
▁새벽	-10.7065
▁의상	-10.7065
▁후하게	-10.7067
▁낚인	-10.7069
▁실망이다	-10.7072
돌려	-10.7073
▁들어간	-10.7088
구먼	-10.7092
▁전문	-10.7115
당신	-10.7115
▁인터넷	-10.7124
덮	-10.7124
됫	-10.7124
밉	-10.7124
엮	-10.7124
킴	-10.7124
듦	-10.7124
퀸	-10.7124
▁섬세한	-10.7124
▁여러모로	-10.7124
▁김수현	-10.7124
▁칭찬	-10.7124
▁섬뜩	-10.7124
▁두고두고	-10.7125
드려요	-10.7125
▁완젼	-10.7125
ma	-10.7128
▁2012	-10.7128
페이스	-10.713
▁서양	-10.7131
▁동영상	-10.7133
▁상징	-10.7133
▁엄청나게	-10.7134
▁라스트	-10.7134
▁이도저도	-10.7135
맞음	-10.7136
▁답답함	-10.7136
하는구나	-10.714
▁드림	-10.714
▁되는데	-10.7144
낭비	-10.7146
▁초반부	-10.7152
로맨스	-10.7153
학년때	-10.7156
립니다	-10.7156
병맛	-10.7158
▁강추합니다	-10.716
▁충격적인	-10.7161
▁부족함	-10.7163
경찰	-10.7164
할수있는	-10.7164
▁무엇이	-10.7166
▁산만하고	-10.7171
▁인디	-10.7181
아닌데	-10.7186
각본	-10.7188
▁형편없는	-10.7204
구역	-10.7207
▁아이유	-10.7208
▁밋밋한	-10.7208
속으로	-10.7209
sh	-10.721
▁있긴	-10.7218
▁여인	-10.7219
▁선사	-10.722
▁불안	-10.7239
▁하드	-10.7244
믿고	-10.7246
▁없군	-10.7247
하고싶다	-10.7251
▁절로	-10.7253
▁빠졌	-10.7255
▁자극적인	-10.7259
외에는	-10.7262
▁이것보다	-10.7269
극히	-10.7269
중국	-10.7271
▁사용	-10.7274
av	-10.7275
▁옆에	-10.7289
▁전설이	-10.73
하거나	-10.7309
▁가야	-10.7311
▁흉내	-10.7322
▁뻔하다	-10.7324
▁비쥬얼	-10.7351
▁시종일관	-10.7351
렴	-10.7351
셜	-10.7351
쏴	-10.7351
옮	-10.7351
▁어정쩡	-10.7351
▁짬뽕	-10.7351
뻑	-10.7351
핫	-10.7351
캠	-10.7351
▁되돌아	-10.7352
▁리얼리티	-10.7352
▁아쉬울	-10.7352
▁바탕으로	-10.7352
▁도둑	-10.7354
▁레옹	-10.7355
▁역량	-10.7355
▁풀어낸	-10.7355
▁방황	-10.7357
▁묘한	-10.7361
▁옛날영화	-10.7363
▁좋겠습니다	-10.7365
▁전체적인	-10.7366
합시다	-10.737
▁멋져요	-10.7373
▁느껴지지	-10.7374
▁모욕	-10.7374
▁역작	-10.7375
▁놀란	-10.7376
▁보고있는데	-10.7382
▁다운받아서	-10.7384
었구나	-10.739
초딩	-10.7394
▁주온	-10.7394
▁보라고	-10.7396
▁부산	-10.7398
그럼	-10.7399
이후로	-10.74
▁공유	-10.7402
▁평소	-10.7402
예술	-10.7402
개인적으로	-10.7403
▁사랑스럽고	-10.7404
하자면	-10.7406
▁멋지게	-10.741
▁십점	-10.7415
결국	-10.7416
▁아까워서	-10.7427
아무리	-10.7428
▁드네요	-10.743
겠는가	-10.7436
▁머냐	-10.7441
▁그리워	-10.7442
▁건질	-10.7443
▁스릴러물	-10.7446
▁팬들	-10.7448
▁결론은	-10.7452
▁욕먹	-10.7455
▁티비로	-10.7456
▁원하는	-10.746
▁여배우들	-10.7467
▁머야	-10.7467
안된다	-10.7469
복수	-10.7471
▁심하다	-10.7476
밖	-10.7487
se	-10.7487
지못한	-10.7493
그저	-10.7502
것같아	-10.751
졌음	-10.7513
▁넣어	-10.753
▁싫어하는	-10.753
▁주려	-10.7533
▁이딴거	-10.7535
▁가시	-10.7536
▁좋더라	-10.7546
▁정신병	-10.7547
▁믿어	-10.755
ter	-10.756
차별	-10.7575
밋	-10.7578
한국영화	-10.7579
딜	-10.7579
▁개봉당시	-10.7582
▁허허	-10.7582
겻	-10.7584
▁디카프리오	-10.7584
▁애니매이션	-10.7584
▁컨셉	-10.7584
렛	-10.7584
뿜	-10.7584
▁그냥저냥	-10.7584
▁원피스	-10.7584
▁비호감	-10.7584
▁드니로	-10.7584
▁몽환적	-10.7585
▁no	-10.7585
▁동시에	-10.7585
▁고뇌	-10.7588
▁케미	-10.7588
▁잃은	-10.759
▁멋짐	-10.7591
▁알려주는	-10.7591
▁재탕	-10.7592
▁말인가	-10.76
습니까	-10.7604
▁단순히	-10.7606
▁감동적임	-10.7607
▁진지하게	-10.7608
▁최후	-10.7612
▁싶었던	-10.7616
하실	-10.762
프로그램	-10.7632
오랜만에	-10.7633
▁빠져들게	-10.7644
▁준비	-10.7645
▁않아요	-10.7646
▁-_-;;	-10.7649
재밋어요	-10.766
▁소유	-10.7661
▁중년	-10.7665
▁군인	-10.7675
싶은데	-10.7677
▁화끈한	-10.7678
멋진	-10.7686
다시보고싶	-10.7692
물론	-10.7692
▁낮네요	-10.7699
▁가히	-10.7704
▁다시봤는데	-10.7717
좋겠다	-10.7736
▁구분	-10.7741
먹었	-10.7745
높아	-10.7756
▁다시보기	-10.7788
▁정체	-10.7804
뎀	-10.7821
▁킬링	-10.7822
뺏	-10.7822
튜	-10.7822
▁가볍지	-10.7822
▁밝혀	-10.7822
▁테이큰	-10.7822
뚫	-10.7822
렘	-10.7822
좆	-10.7822
홈	-10.7822
훼	-10.7822
뤄	-10.7822
▁잊지못할	-10.7822
▁클래식	-10.7822
▁감성팔이	-10.7822
▁묵직	-10.7822
▁피아노	-10.7822
▁망쳐놓	-10.7822
▁비행기	-10.7823
▁컬트	-10.7823
▁거부감	-10.7823
▁환장	-10.7825
><	-10.7826
▁잔잔함	-10.7827
▁공룡	-10.7827
▁난해한	-10.7827
▁자연스러운	-10.7828
▁내취향	-10.7832
▁아쉬워요	-10.7832
▁실사	-10.7836
▁반갑	-10.7838
▁못하겠다	-10.784
▁또라이	-10.7841
분짜리	-10.7846
▁마법	-10.785
▁가짜	-10.7852
▁흉내내	-10.7853
▁재밌었습니다	-10.7855
▁아이들에게	-10.7858
주었다	-10.7859
▁책임	-10.7867
▁한동안	-10.7869
▁되야	-10.7871
▁화질	-10.7878
샘	-10.7881
덕분에	-10.7882
칼	-10.7882
킬링타임	-10.7882
댓글	-10.7884
범죄	-10.7886
▁웃겨서	-10.7889
▁조잡한	-10.7889
▁지금보면	-10.7896
더군	-10.7906
나오는거	-10.7908
할수없는	-10.7909
▁만났	-10.7911
▁쩌네	-10.7913
▁매주	-10.7925
좋아하는데	-10.7929
▁기대했던	-10.7931
ᄒᄒᄒᄒᄒ	-10.7931
여주인공	-10.7932
있던	-10.7936
까봐	-10.7938
▁나한테	-10.7939
해놓고	-10.7939
▁천사	-10.7941
▁있었음	-10.7946
실화	-10.7967
▁살아야	-10.7969
교회	-10.7978
역할	-10.798
틀리	-10.7989
▁재밋네요	-10.799
▁좋구	-10.7997
▁공감되	-10.8022
▁끝날	-10.8022
▁무협영화	-10.8026
▁일깨워	-10.8064
맙	-10.8066
꽁	-10.8066
늬	-10.8066
썸	-10.8066
팩	-10.8066
펜	-10.8066
▁뒤늦게	-10.8066
▁뒤죽박죽	-10.8066
▁송승헌	-10.8066
▁안타까움	-10.8066
▁영웅본색	-10.8066
썬	-10.8066
왈	-10.8066
▁엄정화	-10.8066
▁원주율	-10.8066
▁김희선	-10.8066
▁머릿속	-10.8066
▁왕가위	-10.8066
▁봐줄만	-10.8066
▁자연스럽게	-10.8067
▁그럴싸	-10.8068
▁치밀하	-10.8068
▁크리스찬	-10.8069
▁전성기	-10.8069
▁섬세하	-10.8069
▁극단적	-10.807
▁슈퍼맨	-10.807
▁돌아보게	-10.807
▁잔인함	-10.8072
-.-	-10.8074
▁시간아까워	-10.8075
시켰	-10.8075
남긴다	-10.8075
▁만약	-10.8076
▁혼란	-10.8078
▁늙어	-10.8085
▁동화같은	-10.8087
▁기억난다	-10.8092
▁나올까	-10.8093
▁미스터리	-10.8099
▁마블	-10.8101
▁불쌍해서	-10.8106
선정	-10.8108
▁않았던	-10.8128
멀	-10.8139
시청률	-10.8139
더럽게	-10.814
끝내	-10.8141
버그	-10.8147
cg	-10.815
보지마세요	-10.8155
:)	-10.8161
보고나서	-10.8184
▁불쌍하	-10.8199
▁세상에서	-10.8209
하길래	-10.8211
▁베일	-10.8224
▁당황	-10.8224
ie	-10.8225
재미있음	-10.8231
▁만들려	-10.8255
▁못만들	-10.8258
순수	-10.8258
▁야하지도	-10.8271
있었는데	-10.8279
챙	-10.8313
혐	-10.8314
밍	-10.8316
덧	-10.8316
믄	-10.8316
ᄊ	-10.8316
▁고등학생	-10.8316
톡	-10.8316
▁팝콘	-10.8316
▁한석규	-10.8316
▁설경구	-10.8316
▁드래곤볼	-10.8316
▁데뷔작	-10.8316
▁흠잡을	-10.8316
▁후속편	-10.8316
▁걱정	-10.8317
▁엠마	-10.8317
▁러셀	-10.8317
▁무간도	-10.8317
▁귀찮	-10.8318
▁호흡	-10.832
▁각색	-10.8323
▁개그맨	-10.8323
▁거기다	-10.8323
▁억지스런	-10.8323
▁권력	-10.8324
▁닮았	-10.8327
▁욕나온다	-10.8327
▁보여줄	-10.8333
▁무슨말이	-10.834
웃겼음	-10.834
▁감동적이었다	-10.8343
▁흥미롭지	-10.8345
▁만드냐	-10.8345
▁다시보게	-10.835
▁의미있는	-10.8352
▁귀여워서	-10.8353
▁알바생	-10.8356
▁웃다가	-10.8357
날때	-10.8361
▁알게되	-10.8361
▁보고싶네요	-10.8363
▁단점	-10.8368
▁제대로된	-10.8376
▁강간	-10.8382
죽이고	-10.8398
무서운	-10.8403
옛날	-10.8403
그나마	-10.8404
무서워	-10.8404
궁금	-10.8406
폭력	-10.8415
▁가슴아프	-10.842
웃긴	-10.8437
영활	-10.8443
있었던	-10.8449
큼	-10.8454
그대로	-10.8461
▁뛰어넘	-10.8463
▁브레	-10.8466
▁만세	-10.8466
원주고	-10.847
▁알게된	-10.847
나왔음	-10.8476
충격	-10.8487
해야하나	-10.8494
▁없을까	-10.8495
▁OOOO	-10.8514
실력	-10.8516
알바들	-10.852
▁본듯한	-10.852
자꾸	-10.8523
▁막판	-10.8549
18	-10.8562
어설프	-10.8566
중에서도	-10.8572
▁캐릭	-10.8572
짙	-10.8572
▁엔딩크레딧	-10.8572
▁호불호가	-10.8572
▁흘렸	-10.8572
뎁	-10.8572
셧	-10.8572
▁아마추어	-10.8572
▁김민종	-10.8572
▁최민수	-10.8573
▁고마워	-10.8573
▁흥미롭게	-10.8574
▁택시	-10.8574
땜시	-10.8575
▁늙은	-10.8576
▁절묘	-10.8576
▁파격적	-10.8577
▁찬양	-10.8577
2005	-10.8579
▁직업	-10.8579
▁낮추	-10.858
▁꺼져	-10.8584
▁고인의	-10.8584
▁과학	-10.8585
▁모자라	-10.8589
▁진행되는	-10.859
▁세계관	-10.8591
▁승부	-10.8591
▁에로물	-10.8595
▁존잼	-10.8595
▁봐야한다	-10.8596
▁아깝습니다	-10.8599
▁보는동안	-10.8606
▁찍으	-10.8613
보니깐	-10.8617
▁비록	-10.8617
▁상당	-10.862
▁잼나요	-10.8624
▁이은주	-10.8625
할정도로	-10.8625
흥미롭	-10.8625
el	-10.8625
▁레오	-10.8626
▁공연	-10.8629
▁대역	-10.863
▁있으나	-10.8633
▁모방	-10.8634
▁있어보이	-10.8636
느냐	-10.8637
▁채워	-10.8648
▁당장	-10.8651
▁사람에게	-10.8652
▁말았다	-10.8655
▁편하게	-10.8657
▁봐주	-10.8666
귀여워	-10.8671
잘봤습니다	-10.8673
아름다운	-10.8673
철학	-10.8685
▁명작이네요	-10.8689
검사	-10.8691
▁논리	-10.8701
나봐요	-10.8702
▁커버	-10.8706
▁만들었으면	-10.8715
▁불쌍해	-10.8717
올린	-10.8722
좋겠	-10.8741
▁미안해	-10.8745
▁조연들	-10.879
것같음	-10.8818
▁잊혀	-10.8832
랍니다	-10.8835
킥	-10.8836
팝	-10.8836
뜯	-10.8836
^_^	-10.8836
ᄐ	-10.8836
▁best	-10.8836
▁군더더기	-10.8836
▁박찬욱	-10.8836
▁에드워드	-10.8836
▁오그라들	-10.8836
숲	-10.8836
턱	-10.8836
▁예뻐서	-10.8836
▁즐거움	-10.8836
▁키아누	-10.8836
혔	-10.8836
밨	-10.8836
▁스페인	-10.8836
▁최민식	-10.8836
▁지저분	-10.8836
▁나머진	-10.8836
▁손색이	-10.8836
▁완죤	-10.8836
▁총체적	-10.8837
▁어설프게	-10.8837
▁새삼	-10.8841
창있네	-10.8841
▁안성기	-10.8842
깐	-10.8844
vs	-10.8844
▁국산	-10.8846
▁말씀	-10.8848
▁흘러가는	-10.8852
▁지루했음	-10.8853
▁환상적인	-10.8853
▁불법	-10.8854
▁영광	-10.8854
▁초반엔	-10.8857
▁돈아깝다	-10.8859
▁처음본다	-10.8863
줄알고	-10.8864
▁채우	-10.8865
▁재미나게	-10.8865
▁재미없었음	-10.8869
▁우승	-10.8871
▁향한	-10.8872
▁매번	-10.8874
▁소통	-10.8875
했어야	-10.8878
▁잼없음	-10.8881
▁재방	-10.8885
많은것을	-10.8886
▁인류	-10.8888
▁학생들	-10.8888
▁작화	-10.8892
▁재밌당	-10.8895
▁분장	-10.8897
▁또봐도	-10.89
▁정석	-10.8902
▁커서	-10.8904
▁우린	-10.8912
▁제작자	-10.893
id	-10.8943
첫	-10.8951
애니메이션	-10.8951
얼마나	-10.8951
▁기억남	-10.8953
▁나왔던	-10.8957
tv	-10.8961
▁재수없	-10.8964
저런	-10.8971
▁벌어	-10.8976
걸린	-10.8982
▁각자	-10.9
▁go	-10.9001
▁가능성	-10.9004
ᄃᄃᄃᄃ	-10.9008
ᄍᄍᄍ	-10.9041
la	-10.9049
고싶었	-10.9063
▁범죄자	-10.9072
점만점	-10.909
야말로	-10.9092
뗄	-10.91
둑	-10.9102
▁빵터	-10.9104
▁니콜라스	-10.9106
▁겨울왕국	-10.9106
▁크레딧	-10.9106
랏	-10.9106
삘	-10.9106
앜	-10.9106
얀	-10.9106
▁소피마르소	-10.9106
▁어설퍼	-10.9106
궈	-10.9106
▁권상우	-10.9106
▁데이빗	-10.9106
습니당	-10.9106
▁마찬가지	-10.9106
▁박평식	-10.9106
▁한쿡영화	-10.9106
▁떡밥	-10.9106
▁어딘가	-10.9106
위원회	-10.9106
▁농담	-10.9106
▁클라스	-10.9106
생겨서	-10.9106
▁워낙	-10.9106
▁흑역사	-10.9106
밖엔	-10.911
▁짱짱맨	-10.9112
▁람보	-10.9112
할게요	-10.9114
▁발랄	-10.9118
▁시험	-10.912
▁피곤	-10.9121
▁실패작	-10.9121
▁있기	-10.9122
▁유령	-10.9127
▁모독	-10.9127
▁잔잔하지만	-10.9129
▁빠질	-10.9131
▁던져	-10.9139
▁식상하다	-10.914
질질끄	-10.9141
▁나오다니	-10.9149
▁필요없음	-10.9153
▁울림	-10.9155
▁어쩌면	-10.9159
▁기대된다	-10.9159
▁인연	-10.9165
▁만든건지	-10.9165
회부터	-10.9166
▁네이버평점	-10.9168
▁받아야	-10.9173
▁안가는	-10.9184
▁엘리	-10.9189
▁정체성	-10.9208
투성이	-10.9222
셨으면	-10.9229
썩	-10.9236
-_	-10.9237
판타지	-10.9238
com	-10.9255
나와라	-10.9303
▁극중	-10.9304
올려	-10.9323
즐겁고	-10.9344
룬	-10.9365
▁미스터	-10.9366
훌	-10.9384
****	-10.9384
헨	-10.9384
륵	-10.9384
▁과대평가	-10.9384
▁도라에몽	-10.9384
▁미스테리	-10.9384
▁스필버그	-10.9384
▁슬펐다	-10.9384
▁시끄럽	-10.9384
▁차태현	-10.9384
끓	-10.9384
봤을땐	-10.9384
칫	-10.9384
팽	-10.9384
▁구혜선	-10.9384
▁엑스맨	-10.9384
멕	-10.9384
쉣	-10.9384
▁손예진	-10.9384
zzz	-10.9384
▁객관적	-10.9384
▁멈추	-10.9384
▁의외의	-10.9384
▁다니엘	-10.9384
▁히어로물	-10.9384
파이팅	-10.9385
▁온갖	-10.9385
▁슬퍼요	-10.9386
징그러	-10.9387
▁첫번째	-10.9387
▁돈낭비	-10.9389
▁분량	-10.9389
보기엔	-10.939
▁재방송	-10.9394
▁여태까지	-10.9395
▁사이코	-10.9396
▁오글거려서	-10.9397
▁시골	-10.9398
▁간직	-10.94
▁독립	-10.9402
▁재밌기만	-10.9403
▁고증	-10.9408
누구	-10.9409
▁못따라	-10.9412
▁아쉬웠지만	-10.9412
▁경계	-10.9419
▁모양	-10.9421
▁없애	-10.9425
▁없구나	-10.9427
▁성형	-10.9433
▁어디까지	-10.9438
▁먹먹하다	-10.9444
▁해외	-10.9461
▁꼭봐야	-10.9463
▁변신	-10.9489
▁퇴보	-10.9493
123	-10.9518
쫌	-10.953
짧	-10.953
왜이래	-10.953
촬영	-10.9532
마무리	-10.9532
오르는	-10.9533
암튼	-10.9534
성룡	-10.9553
평생	-10.9564
노출	-10.9568
같애	-10.9583
▁알아야	-10.9596
▁어울리	-10.9601
것인지	-10.9609
만들엇	-10.9616
▁깨닫	-10.9639
▁중학교	-10.9654
심각	-10.9655
▁오랜	-10.9657
♡♡	-10.9663
듭	-10.9665
냄	-10.9668
풋	-10.9669
삽	-10.9669
Y	-10.9669
▁러브라인	-10.9669
겄	-10.9669
▁홧팅	-10.9669
☆	-10.9669
뼈	-10.9669
쌓	-10.9669
잣	-10.9669
졋	-10.9669
▁세련된	-10.9669
▁심리묘사	-10.9669
▁이탈리아	-10.9669
훗	-10.9669
▁김태희	-10.9669
탁월한	-10.9669
▁레이첼	-10.9669
부끄러운	-10.9669
▁깜놀	-10.9669
▁엽문	-10.967
▁아바타	-10.967
▁페이크	-10.967
▁외로움	-10.967
▁젊음	-10.967
▁쏘우	-10.9671
▁7.5	-10.9671
▁민족	-10.9673
ᄂᄂ	-10.9673
▁죽기전에	-10.9674
♡♡♡	-10.9678
▁과장된	-10.9678
▁철저	-10.9681
▁아무튼	-10.9681
▁복수극	-10.9682
▁중반부터	-10.9683
▁뒤집	-10.9686
될까	-10.9686
▁떠오르는	-10.9686
▁볼만해요	-10.9688
점도아깝다	-10.9689
▁경악	-10.9691
▁어렸을적	-10.9694
▁적극	-10.9695
▁백배	-10.9696
▁모순	-10.9697
▁카피	-10.9699
▁힘들었다	-10.97
▁미술	-10.9701
▁되었습니다	-10.9704
▁지옥	-10.9707
보여서	-10.9711
사람마다	-10.9715
▁다시보고싶은	-10.9756
낚였	-10.9756
작렬	-10.9773
▁형식	-10.9788
▁풀어내	-10.9795
특유의	-10.9833
우리나라	-10.9838
네이버	-10.9838
다시봐도	-10.9848
영웅	-10.9853
않았다	-10.9866
남매	-10.9871
▁산만하	-10.9876
▁소름끼치	-10.9883
하지않고	-10.9889
▁없으니	-10.9894
댓	-10.9962
봇	-10.9962
↓	-10.9963
▁굉장한	-10.9963
▁드림웍스	-10.9963
▁러브스토리	-10.9963
▁어쨌든	-10.9963
▁엉터리	-10.9963
▁트랜스포머	-10.9963
욬	-10.9963
웩	-10.9963
윽	-10.9963
푼	-10.9963
▁이것저것	-10.9963
▁황정민	-10.9963
▁다이하드	-10.9964
▁사무라이	-10.9964
▁나루토	-10.9964
▁윌리스	-10.9964
▁장동건	-10.9964
▁정주행	-10.9964
▁펼쳐	-10.9964
▁ᄇᄉ	-10.9964
▁다세포소녀	-10.9964
▁보낸다	-10.9964
▁2004	-10.9964
뜨거운	-10.9964
▁불후의	-10.9964
▁2003	-10.9964
▁틀림없	-10.9964
▁콜린	-10.9964
▁무서울	-10.9964
▁스킵	-10.9964
▁더럽다	-10.9964
▁거기서	-10.9965
어지럽	-10.9968
▁말아먹은	-10.9968
▁생존	-10.9974
▁서극	-10.9975
짱짱짱	-10.9975
십니다	-10.9977
▁커피	-10.9978
▁공허	-10.9978
▁허탈	-10.998
▁노튼	-10.9983
▁소품	-10.9986
▁복선	-10.9988
▁더욱더	-10.9994
▁적당하다	-10.9995
▁회상	-11.0002
▁나은듯	-11.0002
▁드물	-11.0007
▁향기	-11.0023
▁로마	-11.0024
▁짜증났	-11.0044
▁다가오	-11.0054
▁스릴감	-11.0111
취향	-11.0139
퇴	-11.0142
그래픽	-11.0147
ᄉᄇ	-11.0149
▁낚였네	-11.0149
결혼	-11.0151
중딩	-11.0157
힘든	-11.0159
유쾌	-11.0162
보고싶은	-11.0204
팬이라	-11.0218
▁시간아깝	-11.0224
재미잇	-11.0237
▁다음편	-11.0254
흉	-11.0266
드래곤	-11.0266
뚜	-11.0266
뱅	-11.0266
썰	-11.0266
▁런닝타임	-11.0267
▁윌리엄	-11.0267
▁신데렐라	-11.0267
▁인상깊게	-11.0267
녁	-11.0267
릉	-11.0267
웰	-11.0267
줫	-11.0267
탠	-11.0267
펠	-11.0267
▁국어책	-11.0267
▁엉망진창	-11.0267
▁웬만하면	-11.0267
▁더더욱	-11.0267
▁어차피	-11.0267
▁오우삼	-11.0267
떄문에	-11.0267
찜찜	-11.0267
▁픽션	-11.0267
스러울	-11.0267
▁납치	-11.0267
▁전지현	-11.0267
▁지브리	-11.0267
▁심오한	-11.0267
▁미친듯이	-11.0268
▁사기꾼	-11.0268
▁사라져	-11.0268
▁8.5	-11.0268
귀요미	-11.0268
▁증명	-11.0268
▁색채	-11.027
▁2015	-11.027
▁거듭	-11.0271
▁담담하	-11.0274
▁웃으며	-11.0277
▁197	-11.0277
▁태양	-11.0279
고싶지	-11.0283
▁마틴	-11.0288
▁울었습니다	-11.03
▁볼만했는데	-11.0307
▁소소하	-11.0314
싶을때	-11.0334
▁어린이용	-11.0336
바탕	-11.0361
▁so	-11.0367
▁살아남	-11.0384
빡치	-11.0434
넘치는	-11.0438
깎	-11.0467
선생님	-11.0467
▁따뜻함	-11.047
배틀	-11.0486
몇번	-11.051
뜩	-11.0578
넷	-11.0579
넼	-11.0579
핳	-11.0579
▁ebs	-11.0579
▁아이언맨	-11.0579
▁용두사미	-11.0579
▁톰크루즈	-11.0579
▁파워레인저	-11.0579
▁펭귄	-11.0579
▁학창시절	-11.0579
긔	-11.0579
꺄	-11.0579
▁양동근	-11.0579
▁가슴아픈	-11.0579
▁아프리카	-11.0579
▁불면증	-11.0579
▁색다르	-11.0579
▁어떠한	-11.0579
▁오페라	-11.0579
▁임청하	-11.0579
▁뉴욕	-11.0579
▁엉엉	-11.0579
▁모자란	-11.058
▁솔까	-11.058
▁감수성	-11.058
기승전	-11.058
▁끊임없	-11.058
ᅩᅩ	-11.058
▁전도연	-11.0581
▁돋보인다	-11.0581
▁증말	-11.0582
▁보여줌	-11.0582
▁눈요기	-11.0582
배속으로	-11.0583
▁내인생최고의	-11.0584
▁이민기	-11.0587
왜이럼	-11.0587
▁패션	-11.0589
▁초등학교때	-11.0589
꼬라지	-11.059
▁지루했어요	-11.0592
▁제정신	-11.0593
▁반응	-11.0595
▁출발	-11.0595
▁드문	-11.0597
▁중간부터	-11.0598
것같습니다	-11.0598
▁음향	-11.0601
▁알려준	-11.0601
지않을	-11.0604
▁원표	-11.0605
▁남자라면	-11.0605
▁대실망	-11.0605
▁터지는	-11.0616
▁도통	-11.0624
▁터져	-11.0627
hi	-11.0633
CGV	-11.0659
▁질리지않	-11.0669
아프고	-11.0688
▁데려다	-11.0701
▁재미있었던	-11.0763
ever	-11.0785
톰	-11.08
시간낭비	-11.0807
▁환상적이	-11.0807
흥미를	-11.081
필요없	-11.0812
볼때마다	-11.0812
재밋게봣	-11.0831
▁역겹	-11.0841
즌	-11.0886
대단히	-11.0896
믹	-11.0897
낌	-11.0899
긍	-11.0902
룸	-11.0902
엌	-11.0902
▁말았어야	-11.0902
▁미야자키	-11.0902
▁일베충	-11.0902
▁카메론	-11.0902
▁팀버튼	-11.0902
▁흐지부지	-11.0902
뎌	-11.0902
텅	-11.0902
▁재발견	-11.0902
릅	-11.0902
▁간간히	-11.0902
▁깨달음	-11.0902
▁김명민	-11.0902
▁고마운	-11.0902
▁납득	-11.0902
▁여기저기	-11.0902
▁조승우	-11.0902
▁하이킥	-11.0902
▁찬사를	-11.0902
▁큐브	-11.0902
▁성유리	-11.0902
▁거슬리	-11.0902
▁일어날	-11.0903
▁잃어버린	-11.0903
깁니다	-11.0904
▁강아지	-11.0904
▁일깨워주는	-11.0904
▁사라진	-11.0905
▁가끔씩	-11.0906
▁담백하	-11.0908
▁감동적이었습니다	-11.0908
▁모르겟다	-11.0909
▁어린이들	-11.0911
▁존경합니다	-11.0912
▁잃어	-11.0913
▁산만한	-11.0913
▁에릭	-11.0914
였으나	-11.0914
▁좋아하시는	-11.0915
▁있겠지만	-11.0915
▁요약	-11.0917
▁절실	-11.0917
▁좋아한다면	-11.0917
▁치료	-11.0918
▁번역	-11.0919
▁총알	-11.0921
▁뭐랄까	-11.0922
영화관에서	-11.0923
헤헤	-11.0925
▁돌려줘	-11.0926
이건뭐	-11.0936
▁중학교때	-11.0936
▁No	-11.0939
▁늙었	-11.0944
역활	-11.0974
▁볼거없	-11.098
▁만날	-11.1019
삶은	-11.1038
▁머리속	-11.1048
▁초중반	-11.1048
볼걸	-11.1073
▁198	-11.1082
페이지	-11.1117
느와르	-11.1146
좋았음	-11.1146
한마디로	-11.1147
완벽	-11.115
▁wa	-11.1154
이쁘다	-11.1157
아이돌	-11.1166
첩	-11.1232
펑	-11.1235
쯧	-11.1235
옵	-11.1235
헝	-11.1235
ᅦ	-11.1235
▁ocn	-11.1235
▁매트릭스	-11.1235
▁임권택	-11.1235
▁프레디	-11.1235
人	-11.1235
갇	-11.1235
겸	-11.1235
뉘	-11.1235
썻	-11.1235
재밌게봤습니다	-11.1235
▁끝판왕	-11.1235
▁다크나이트	-11.1235
곁	-11.1235
딕	-11.1235
▁빅뱅	-11.1235
▁서프라이즈	-11.1235
▁싸이코패스	-11.1235
잎	-11.1235
▁송지효	-11.1235
▁스티브	-11.1235
▁주상욱	-11.1235
▁달콤한	-11.1235
▁신세경	-11.1235
▁인디아나	-11.1235
▁잘만들어진	-11.1235
▁아이러니	-11.1235
▁임수정	-11.1235
▁이연희	-11.1235
▁구역질	-11.1235
▁엑소	-11.1236
▁플레이	-11.1236
▁아까웠던	-11.1236
^.^	-11.1236
▁가까이	-11.1236
▁록키	-11.1236
▁압도적	-11.1238
▁별한개도	-11.1238
▁경의를	-11.1239
ery	-11.124
내놔	-11.1241
▁잔인하기만	-11.1242
▁어딜	-11.1243
▁지나친	-11.1244
▁역쉬	-11.1244
마인드	-11.1246
알수있	-11.1246
▁이나영	-11.1246
▁대표작	-11.1247
▁말이필요없는	-11.1249
▁몰락	-11.1251
▁케이지	-11.1253
▁소중하	-11.127
▁억지설정	-11.1278
▁사랑스럽	-11.128
▁어린아이	-11.129
분들께	-11.1306
영화자체는	-11.1309
▁사나이	-11.1319
개인적	-11.1356
채널에서	-11.1373
재미가없	-11.1377
낙	-11.1501
씹	-11.1502
좋았어요	-11.1504
0000	-11.1506
왜이리	-11.1508
이쁘고	-11.151
낮아서	-11.1512
중반부	-11.1559
떠오르	-11.1567
뿔	-11.157
뷔	-11.158
쿡	-11.158
펼	-11.158
됴	-11.158
셉	-11.158
▁송혜교	-11.158
▁오그라든다	-11.158
둬	-11.158
▁KBS	-11.158
▁MBC	-11.158
▁내러티브	-11.158
▁묻어나는	-11.158
▁스칼렛	-11.158
쏙	-11.158
켈	-11.158
Z	-11.158
▁환타지	-11.158
띵	-11.158
벙	-11.158
▁클린트	-11.158
▁애국심	-11.158
▁2013	-11.158
그나저나	-11.158
▁조용히	-11.158
▁영향을	-11.158
▁함부로	-11.158
▁ᄅᄋ	-11.158
잭	-11.1873
깁	-11.1935
쎄	-11.1935
쵝	-11.1937
쏠	-11.1937
럿	-11.1937
밸	-11.1937
q	-11.1937
껍	-11.1937
됌	-11.1937
맷	-11.1937
빤	-11.1937
펀	-11.1937
펄	-11.1937
횽	-11.1937
훔	-11.1937
샀	-11.1937
쇠	-11.1937
톨	-11.1937
싫	-11.2004
끗	-11.2307
쌩	-11.2307
#	-11.2307
숫	-11.2307
콕	-11.2307
ᄑ	-11.2307
펴	-11.2307
샹	-11.2307
깡	-11.2692
。	-11.2692
꿨	-11.2692
댕	-11.2692
쉰	-11.2692
흰	-11.2692
묶	-11.2692
댐	-11.2692
꽝	-11.3074
꾹	-11.3092
쨩	-11.3092
쫙	-11.3092
뱉	-11.3092
욜	-11.3092
췄	-11.3092
핏	-11.3092
흙	-11.3092
듀	-11.3092
귓	-11.3509
ᅭ	-11.3509
뇨	-11.3509
륙	-11.3509
뺀	-11.3509
쑤	-11.3509
텀	-11.3509
햄	-11.3509
칩	-11.3509
캬	-11.3509
낳	-11.3509
죤	-11.3943
○	-11.3943
팡	-11.3943
뻘	-11.3943
쌤	-11.3943
욧	-11.3943
댈	-11.3943
솟	-11.3943
쌈	-11.3943
쌔	-11.3943
캅	-11.3943
힛	-11.3943
룹	-11.3943
엎	-11.3943
젓	-11.3943
넌	-11.3963
꽤	-11.3965
뀌	-11.4394
엣	-11.4398
·	-11.4398
췌	-11.4398
탔	-11.4398
햐	-11.4398
ᆞ	-11.4398
괘	-11.4398
샬	-11.4398
탭	-11.4398
힝	-11.4398
웬	-11.4439
률	-11.4874
찜	-11.4874
킷	-11.4874
눠	-11.4874
엥	-11.4874
\	-11.4874
’	-11.4874
닦	-11.4874
쌀	-11.4874
썅	-11.4874
쪄	-11.4874
[	-11.494
짠	-11.494
뭇	-11.5373
쩡	-11.5373
뭥	-11.5374
떳	-11.5374
ᅣ	-11.5374
乃	-11.5374
깽	-11.5374
꺅	-11.5374
뒀	-11.5374
밭	-11.5374
샷	-11.5374
셸	-11.5374
싯	-11.5374
썽	-11.5374
씌	-11.5374
앳	-11.5374
얌	-11.5374
얕	-11.5374
얹	-11.5374
웁	-11.5374
퍽	-11.5374
깬	-11.5374
냅	-11.5374
끊	-11.5466
짬	-11.59
젬	-11.59
즉	-11.59
갤	-11.59
굼	-11.59
꽂	-11.59
낱	-11.59
늠	-11.59
됀	-11.59
뛴	-11.59
쵸	-11.59
켠	-11.59
툰	-11.59
롬	-11.59
륭	-11.6456
뎈	-11.6456
돠	-11.6456
꾀	-11.6456
촉	-11.6456
욯	-11.6456
윙	-11.6456
쟝	-11.6456
짖	-11.6456
몹	-11.6456
헬	-11.6609
푹	-11.661
훅	-11.7044
겜	-11.7044
얔	-11.7044
ᅧ	-11.7044
꿋	-11.7044
땟	-11.7044
뤽	-11.7044
붐	-11.7044
웡	-11.7044
읎	-11.7044
딥	-11.7044
떴	-11.7044
붓	-11.7044
씽	-11.7044
짭	-11.7044
녹	-11.7234
훨	-11.7234
펙	-11.7662
댜	-11.7669
곸	-11.7669
♬	-11.7669
덥	-11.7669
룻	-11.7669
뮬	-11.7669
뺐	-11.7669
샴	-11.7669
섰	-11.7669
좁	-11.7669
퀘	-11.7669
퀼	-11.7669
큘	-11.7669
댔	-11.7669
뭍	-11.7669
쁠	-11.7669
쿤	-11.7669
팜	-11.7669
갸	-11.7669
캔	-11.8335
첼	-11.8336
힙	-11.8336
쉘	-11.8336
無	-11.8336
젝	-11.8336
좃	-11.8336
킁	-11.8336
Q	-11.8336
꿉	-11.8336
뷁	-11.8336
쑈	-11.8336
쪙	-11.8336
챔	-11.8336
겅	-11.8336
셰	-11.8336
맡	-11.8616
걱	-11.9048
낄	-11.9049
|	-11.905
헷	-11.905
겔	-11.905
텍	-11.905
뤘	-11.905
쨔	-11.905
빔	-11.905
빽	-11.905
칵	-11.905
쾅	-11.905
휼	-11.905
“	-11.905
”	-11.905
뜰	-11.905
믓	-11.905
밈	-11.905
슥	-11.905
얍	-11.905
욘	-11.905
짚	-11.905
캣	-11.905
곧	-11.9383
얻	-11.9386
쩐	-11.9754
넥	-11.9819
뵈	-11.9819
윗	-11.9819
甲	-11.9819
넝	-11.9819
맬	-11.9819
뱃	-11.9819
훤	-11.9819
걔	-11.9819
됏	-11.9819
뤠	-11.9819
잰	-11.9819
춥	-11.9819
풉	-11.9819
헛	-12.0219
켰	-12.0621
촬	-12.0647
늑	-12.0651
텨	-12.0653
횡	-12.0653
굽	-12.0653
꿰	-12.0653
벡	-12.0653
욥	-12.0653
죵	-12.0653
찼	-12.0653
캄	-12.0653
퐁	-12.0653
흣	-12.0653
→	-12.0653
꼐	-12.0653
눅	-12.0653
뵙	-12.0653
숴	-12.0653
융	-12.0653
졷	-12.0653
쳇	-12.0653
퉷	-12.0653
홉	-12.0653
밓	-12.1562
첸	-12.1562
괄	-12.1562
끽	-12.1562
쏜	-12.1562
냔	-12.1562
뎃	-12.1562
돔	-12.1562
뿅	-12.1562
슐	-12.1562
콥	-12.1562
곀	-12.1562
괸	-12.1562
넉	-12.1562
넴	-12.1562
뿡	-12.1562
쒯	-12.1562
잌	-12.1562
팰	-12.1562
헿	-12.1562
뒷	-12.2128
땜	-12.2457
멱	-12.2562
ᄈ	-12.2562
ᆪ	-12.2562
깟	-12.2562
뒈	-12.2562
렜	-12.2562
멧	-12.2562
뿍	-12.2562
썹	-12.2562
쒸	-12.2562
읭	-12.2562
콱	-12.2562
큭	-12.2562
펭	-12.2562
死	-12.2562
닛	-12.2562
볶	-12.2562
샵	-12.2562
쫘	-12.2562
갘	-12.3673
女	-12.3673
컵	-12.3673
컹	-12.3673
꽈	-12.3673
벳	-12.3673
{	-12.3673
}	-12.3673
⌒	-12.3673
♪	-12.3673
作	-12.3673
댁	-12.3673
륨	-12.3673
쮸	-12.3673
쳣	-12.3673
뇬	-12.3673
햅	-12.3673
갚	-12.3673
뻗	-12.3673
킵	-12.4919
봅	-12.492
컥	-12.492
낍	-12.4923
줏	-12.4923
넛	-12.4923
넨	-12.4923
뒹	-12.4923
헥	-12.4923
$	-12.4923
끙	-12.4923
냠	-12.4923
떵	-12.4923
뤼	-12.4923
뭄	-12.4923
믈	-12.4923
섀	-12.4923
쎈	-12.4923
쥰	-12.4923
쨰	-12.4923
챦	-12.4923
쿼	-12.4923
팟	-12.4923
딛	-12.4923
떙	-12.4923
롸	-12.4923
웹	-12.4923
캘	-12.4923
ン	-12.4923
놧	-12.6351
쭝	-12.6351
앟	-12.6351
캉	-12.6351
팥	-12.6351
뮈	-12.6351
챈	-12.6351
홬	-12.6351
궤	-12.6351
귯	-12.6351
녜	-12.6351
뫼	-12.6351
벵	-12.6351
뺄	-12.6351
앰	-12.6351
웜	-12.6351
읏	-12.6351
졉	-12.6351
휙	-12.6351
盧	-12.6351
갯	-12.6351
놉	-12.6351
랔	-12.6351
랖	-12.6351
뺑	-12.6351
뽐	-12.6351
촐	-12.6351
촤	-12.6351
팁	-12.6351
쎼	-12.6351
왁	-12.6351
찟	-12.6351
옛	-12.7581
멌	-12.8018
샨	-12.8018
슝	-12.8018
─	-12.8018
됄	-12.8018
띨	-12.8018
빴	-12.8018
ᄄ	-12.8018
룽	-12.8018
뽄	-12.8018
삥	-12.8018
셩	-12.8018
쌌	-12.8018
옄	-12.8018
옌	-12.8018
옼	-12.8018
찹	-12.8018
챠	-12.8018
콰	-12.8018
끅	-12.8018
넙	-12.8018
먀	-12.8018
몃	-12.8018
숏	-12.8018
쿰	-12.8018
잦	-12.8018
곘	-12.8018
し	-12.8018
챘	-13.5694
읊	-13.5695
뛸	-13.5696
덟	-13.5697
궂	-13.5698
굶	-13.5699
̄	-13.57
츈	-13.5701
촛	-13.5702
챤	-13.5703
쫀	-13.5704
짰	-13.5705
옅	-13.5706
벚	-13.5707
껌	-13.5708
훠	-13.5709
햌	-13.571
짘	-13.5711
죨	-13.5712
좔	-13.5713
윅	-13.5714
왘	-13.5715
썪	-13.5716
뉜	-13.5717
냨	-13.5718
꺠	-13.5719
故	-13.572
쌉	-13.5721
숟	-13.5722
땔	-13.5723
뀜	-13.5724
깼	-13.5725
괭	-13.5726
툴	-13.5727
쥑	-13.5728
잴	-13.5729
앍	-13.573
샛	-13.5731
덱	-13.5732
껑	-13.5733
휠	-13.5734
훑	-13.5735
홥	-13.5736
츤	-13.5737
촘	-13.5738
쫑	-13.5739
쁩	-13.574
닠	-13.5741
뀔	-13.5742
휩	-13.5743
헴	-13.5744
핥	-13.5745
폄	-13.5746
릎	-13.5747
꺾	-13.5748
긁	-13.5749
큽	-13.575
딪	-13.5751
괞	-13.5752
횟	-13.5753
헠	-13.5754
쟤	-13.5755
옜	-13.5756
샐	-13.5757
뚤	-13.5758
쥔	-13.5759
멎	-13.576
꺽	-13.5761
굵	-13.5762
핡	-13.5763
뺴	-13.5764
녔	-13.5765
낰	-13.5766
꼼	-13.5767
핍	-13.5768
슌	-13.5769
낡	-13.577
씻	-13.5771
‘	-13.5772
펏	-13.5773
돕	-13.5774
꽥	-13.5775
쫒	-13.5776
닳	-13.5777
왼	-13.5778
쬐	-13.5779
뺨	-13.578
픕	-13.5781
쿄	-13.5782
얽	-13.5783
넓	-13.5784
쨋	-13.5785
딨	-13.5786
빚	-13.5787
넋	-13.5788
꼇	-13.5789
뀐	-13.579
뭡	-13.5791
밟	-13.5792
앓	-13.5793
멤	-13.5794
붉	-13.5795
꽉	-13.5796
솜	-13.5797
땠	-13.5798
웍	-13.5799
귄	-13.58
쭈	-13.5801
홧	-13.5802
핸	-13.5803
틋	-13.5804
둠	-13.5805
컸	-13.5806
뻣	-13.5807
맺	-13.5808
맑	-13.5809
찔	-13.581
찢	-13.5811
겪	-13.5812
쨌	-13.5813
팠	-13.5814
빕	-13.5815
쫄	-13.5816
띄	-13.5817
틸	-13.5818
텝	-13.5819
닙	-13.582
콧	-13.5821
껐	-13.5822
쏟	-13.5823
딧	-13.5824
왤	-13.5825
뻤	-13.5826
꿔	-13.5827
튀	-13.5828
섞	-13.5829
슷	-13.583
펐	-13.583
획	-13.5831
겉	-13.5832
밝	-13.5833
줍	-13.5834
쁨	-13.5835
됩	-13.5836
늦	-13.5837
볍	-13.5838
찝	-13.5839
묻	-13.584
굉	-13.5841
똑	-13.5842
읽	-13.5843
랐	-13.5844
떻	-13.5845
깊	-13.5846
렸	-13.5847
렇	-13.5848
았	-13.5849
밌	-13.585
퀀	-13.5851
봤	-13.5851
탤	-13.5851
